<pad>	0
<unk>	0
<s>	0
</s>	0
he	-0
▁t	-1
▁a	-2
▁s	-3
▁w	-4
nd	-5
▁the	-6
ed	-7
▁and	-8
▁to	-9
▁b	-10
in	-11
▁h	-12
▁wa	-13
re	-14
▁f	-15
ou	-16
it	-17
▁T	-18
▁l	-19
▁c	-20
▁d	-21
er	-22
▁he	-23
▁m	-24
▁p	-25
▁was	-26
om	-27
▁o	-28
ay	-29
▁The	-30
ar	-31
is	-32
ing	-33
il	-34
▁g	-35
id	-36
▁S	-37
at	-38
en	-39
▁n	-40
▁sa	-41
▁ha	-42
an	-43
im	-44
or	-45
on	-46
▁it	-47
▁H	-48
▁th	-49
ll	-50
le	-51
▁"	-52
▁her	-53
▁She	-54
ot	-55
et	-56
ir	-57
▁He	-58
▁They	-59
es	-60
▁in	-61
ver	-62
ut	-63
ow	-64
▁L	-65
ck	-66
▁e	-67
▁u	-68
ld	-69
ily	-70
▁y	-71
oo	-72
ig	-73
▁said	-74
▁r	-75
am	-76
▁be	-77
▁st	-78
▁I	-79
ce	-80
▁she	-81
ke	-82
pp	-83
ith	-84
ve	-85
os	-86
▁with	-87
▁O	-88
▁Lily	-89
▁On	-90
▁on	-91
▁of	-92
ri	-93
ked	-94
▁his	-95
▁you	-96
▁pl	-97
▁so	-98
nt	-99
very	-100
ad	-101
▁B	-102
▁day	-103
▁that	-104
▁up	-105
▁play	-106
▁had	-107
▁they	-108
▁we	-109
▁mom	-110
▁for	-111
el	-112
my	-113
ould	-114
un	-115
▁M	-116
st	-117
eos	-118
▁<	-119
▁li	-120
▁happ	-121
ch	-122
ent	-123
itt	-124
▁want	-125
her	-126
▁sh	-127
out	-128
▁do	-129
▁not	-130
▁very	-131
ome	-132
ly	-133
all	-134
ound	-135
end	-136
ittle	-137
ime	-138
▁wh	-139
▁little	-140
▁k	-141
▁time	-142
▁there	-143
al	-144
▁ne	-145
ht	-146
▁A	-147
▁happy	-148
▁big	-149
▁re	-150
▁It	-151
▁is	-152
▁sm	-153
▁but	-154
ra	-155
▁saw	-156
riend	-157
▁friend	-158
▁an	-159
ry	-160
▁as	-161
ack	-162
se	-163
."	-164
▁Tim	-165
▁One	-166
ide	-167
ake	-168
ved	-169
ter	-170
ug	-171
▁Once	-172
▁loo	-173
▁were	-174
ore	-175
!"	-176
ec	-177
▁him	-178
▁too	-179
▁bo	-180
▁J	-181
▁se	-182
▁go	-183
▁lo	-184
irl	-185
▁upon	-186
▁wanted	-187
▁j	-188
ard	-189
▁girl	-190
ill	-191
▁are	-192
▁them	-193
▁out	-194
▁at	-195
▁their	-196
ind	-197
▁sp	-198
way	-199
fu	-200
▁Tom	-201
▁did	-202
ur	-203
▁Ben	-204
▁could	-205
hen	-206
▁smil	-207
ain	-208
▁have	-209
art	-210
▁went	-211
hed	-212
▁ex	-213
rom	-214
ic	-215
round	-216
lp	-217
▁W	-218
▁nam	-219
▁can	-220
ful	-221
▁friends	-222
hing	-223
▁help	-224
▁But	-225
▁kn	-226
▁all	-227
ood	-228
ight	-229
?"	-230
▁Timmy	-231
um	-232
ark	-233
one	-234
▁back	-235
▁fun	-236
▁cl	-237
are	-238
▁say	-239
▁le	-240
You	-241
▁named	-242
▁loved	-243
op	-244
elt	-245
oug	-246
▁al	-247
▁sc	-248
side	-249
▁felt	-250
▁toy	-251
ick	-252
▁smiled	-253
▁man	-254
▁fe	-255
▁no	-256
▁asked	-257
▁see	-258
ame	-259
▁looked	-260
▁like	-261
▁around	-262
▁some	-263
omet	-264
ure	-265
▁boy	-266
▁br	-267
get	-268
▁would	-269
▁me	-270
▁ro	-271
▁bir	-272
ong	-273
ice	-274
▁start	-275
▁somet	-276
as	-277
▁bird	-278
ings	-279
▁wor	-280
▁ag	-281
ade	-282
▁fa	-283
▁what	-284
▁make	-285
▁tre	-286
dd	-287
king	-288
gether	-289
own	-290
▁away	-291
▁ran	-292
ag	-293
▁started	-294
,"	-295
▁You	-296
oud	-297
▁made	-298
ared	-299
▁Mom	-300
ie	-301
▁together	-302
▁says	-303
▁park	-304
▁something	-305
if	-306
▁car	-307
ther	-308
ited	-309
▁sad	-310
▁co	-311
▁put	-312
▁new	-313
▁other	-314
▁E	-315
▁pr	-316
▁F	-317
ble	-318
▁again	-319
▁from	-320
▁exc	-321
▁hug	-322
▁mu	-323
▁home	-324
ell	-325
▁when	-326
▁good	-327
ook	-328
▁who	-329
▁la	-330
est	-331
ried	-332
▁found	-333
ep	-334
▁then	-335
ach	-336
▁dec	-337
▁fl	-338
pped	-339
▁ch	-340
▁playing	-341
ought	-342
▁wal	-343
▁get	-344
qu	-345
ally	-346
hat	-347
▁things	-348
▁sw	-349
uck	-350
▁got	-351
pl	-352
ous	-353
▁liked	-354
nn	-355
▁every	-356
▁D	-357
▁decid	-358
▁excited	-359
▁Su	-360
ave	-361
▁decided	-362
▁came	-363
▁Sam	-364
ax	-365
▁bl	-366
▁bec	-367
▁down	-368
▁your	-369
▁find	-370
▁care	-371
▁dog	-372
ust	-373
▁Ann	-374
▁scared	-375
▁one	-376
▁feel	-377
▁v	-378
▁than	-379
ist	-380
ouse	-381
ny	-382
▁dad	-383
ap	-384
ss	-385
▁ab	-386
arn	-387
ara	-388
ways	-389
▁didn	-390
▁Max	-391
▁gra	-392
▁my	-393
▁always	-394
ant	-395
▁took	-396
ers	-397
▁ke	-398
▁mommy	-399
ess	-400
▁Anna	-401
fe	-402
▁about	-403
our	-404
▁lot	-405
▁toys	-406
▁tree	-407
▁kne	-408
▁ball	-409
▁will	-410
▁look	-411
nder	-412
▁outside	-413
▁Sara	-414
ite	-415
▁So	-416
▁thought	-417
eci	-418
▁bu	-419
ened	-420
▁ta	-421
▁learn	-422
bb	-423
ise	-424
ched	-425
▁When	-426
▁more	-427
▁pre	-428
▁know	-429
▁int	-430
▁pu	-431
ged	-432
▁po	-433
ro	-434
ecial	-435
▁special	-436
▁old	-437
▁take	-438
▁sor	-439
▁Her	-440
▁laug	-441
▁pe	-442
▁knew	-443
au	-444
ive	-445
▁cat	-446
ma	-447
fter	-448
▁how	-449
▁any	-450
dden	-451
▁show	-452
▁tr	-453
▁much	-454
▁Jo	-455
ia	-456
▁ho	-457
ddenly	-458
▁Every	-459
and	-460
▁sorry	-461
▁sl	-462
ink	-463
ish	-464
▁run	-465
▁house	-466
▁tw	-467
▁Jack	-468
ven	-469
▁told	-470
▁or	-471
▁sk	-472
▁op	-473
▁hand	-474
▁sun	-475
▁inside	-476
▁gave	-477
▁tried	-478
▁into	-479
▁water	-480
▁proud	-481
ank	-482
▁couldn	-483
▁over	-484
▁qu	-485
ause	-486
ate	-487
▁never	-488
ty	-489
ump	-490
here	-491
other	-492
▁en	-493
▁eat	-494
▁if	-495
ace	-496
▁clos	-497
▁room	-498
▁played	-499
etter	-500
▁heard	-501
ge	-502
▁expl	-503
▁From	-504
▁pick	-505
▁pret	-506
▁each	-507
ion	-508
▁this	-509
by	-510
▁We	-511
dy	-512
ak	-513
▁because	-514
▁Suddenly	-515
▁hugged	-516
▁str	-517
▁com	-518
▁wat	-519
▁gre	-520
▁box	-521
▁Then	-522
▁just	-523
▁nice	-524
ile	-525
oth	-526
ue	-527
▁need	-528
▁His	-529
iz	-530
▁Mia	-531
▁jo	-532
▁off	-533
▁And	-534
▁many	-535
▁long	-536
▁bear	-537
▁small	-538
▁fo	-539
ving	-540
▁sn	-541
ough	-542
▁learned	-543
ort	-544
ine	-545
▁unt	-546
uc	-547
imal	-548
▁animal	-549
gry	-550
▁try	-551
▁better	-552
ild	-553
▁until	-554
elf	-555
▁love	-556
urt	-557
▁C	-558
ft	-559
▁mo	-560
em	-561
▁im	-562
▁dre	-563
▁end	-564
▁kind	-565
▁call	-566
▁cle	-567
ber	-568
▁flow	-569
▁ad	-570
▁best	-571
urn	-572
vent	-573
aut	-574
sed	-575
ars	-576
ady	-577
▁gr	-578
▁fi	-579
▁careful	-580
▁sky	-581
▁fast	-582
ves	-583
▁thanked	-584
▁even	-585
▁beaut	-586
Yes	-587
▁bra	-588
urp	-589
arden	-590
▁garden	-591
▁don	-592
pt	-593
lly	-594
▁che	-595
▁cu	-596
▁te	-597
▁by	-598
self	-599
▁lots	-600
ies	-601
iny	-602
▁gl	-603
▁loud	-604
▁laughed	-605
▁fam	-606
▁jump	-607
ost	-608
▁â	-609
ase	-610
▁beauti	-611
lew	-612
▁list	-613
▁still	-614
wn	-615
▁beautiful	-616
rm	-617
Th	-618
▁hard	-619
▁way	-620
▁come	-621
▁hurt	-622
▁wo	-623
▁animals	-624
ct	-625
▁ra	-626
ast	-627
hes	-628
▁col	-629
▁under	-630
▁rem	-631
▁P	-632
▁As	-633
ning	-634
▁safe	-635
▁stay	-636
ect	-637
be	-638
ock	-639
▁let	-640
▁Joh	-641
▁lived	-642
▁both	-643
ool	-644
▁After	-645
ople	-646
▁imp	-647
▁brave	-648
▁family	-649
▁its	-650
sh	-651
kay	-652
▁bad	-653
ob	-654
▁dan	-655
▁red	-656
▁stor	-657
ished	-658
ane	-659
▁two	-660
▁book	-661
ree	-662
▁fin	-663
▁people	-664
▁su	-665
ucy	-666
▁should	-667
urpr	-668
▁called	-669
▁flew	-670
▁Lucy	-671
▁fly	-672
▁pic	-673
igh	-674
▁walked	-675
▁surpr	-676
▁soon	-677
▁angry	-678
▁fore	-679
▁doll	-680
xt	-681
led	-682
▁kept	-683
▁clean	-684
▁share	-685
It	-686
fore	-687
ised	-688
▁rock	-689
▁pretty	-690
No	-691
▁dra	-692
▁going	-693
ip	-694
▁door	-695
Let	-696
▁con	-697
▁G	-698
▁keep	-699
▁ground	-700
▁shiny	-701
▁opened	-702
▁advent	-703
dded	-704
ummy	-705
▁real	-706
▁now	-707
▁John	-708
▁wind	-709
▁fr	-710
illy	-711
▁cry	-712
▁explore	-713
age	-714
▁cre	-715
▁sto	-716
▁ide	-717
▁before	-718
▁noise	-719
▁color	-720
ary	-721
▁turn	-722
les	-723
so	-724
▁far	-725
ture	-726
▁also	-727
▁picked	-728
▁feeling	-729
ied	-730
▁while	-731
▁Bob	-732
▁ey	-733
▁idea	-734
▁Dad	-735
imb	-736
▁climb	-737
▁next	-738
ff	-739
thing	-740
▁bed	-741
▁un	-742
▁Mommy	-743
oy	-744
▁wr	-745
eet	-746
▁thr	-747
▁has	-748
What	-749
▁walking	-750
▁smile	-751
▁picture	-752
ger	-753
iced	-754
▁truck	-755
▁nodded	-756
▁adventure	-757
th	-758
aybe	-759
▁N	-760
TM	-761
kes	-762
▁being	-763
ember	-764
ted	-765
▁ma	-766
Thank	-767
ious	-768
joy	-769
ac	-770
ting	-771
▁give	-772
▁Sp	-773
▁food	-774
▁tra	-775
▁looking	-776
▁wait	-777
▁R	-778
▁listen	-779
▁stopped	-780
That	-781
▁blue	-782
ized	-783
ught	-784
▁remember	-785
▁bre	-786
▁dif	-787
▁tow	-788
▁after	-789
▁bro	-790
▁hands	-791
▁noticed	-792
▁think	-793
maz	-794
▁eyes	-795
▁del	-796
▁amaz	-797
▁walk	-798
able	-799
▁quick	-800
▁own	-801
▁enjoy	-802
▁forest	-803
▁dis	-804
▁slide	-805
▁great	-806
▁ever	-807
▁showed	-808
▁repl	-809
▁watch	-810
irst	-811
▁strong	-812
▁flowers	-813
▁app	-814
bbit	-815
▁everyone	-816
▁import	-817
▁wonder	-818
▁rain	-819
▁fish	-820
▁work	-821
llow	-822
▁vo	-823
▁ac	-824
▁tal	-825
▁boat	-826
▁near	-827
▁ask	-828
▁stick	-829
▁okay	-830
▁head	-831
▁important	-832
▁where	-833
▁shout	-834
▁mean	-835
oon	-836
ose	-837
▁Sue	-838
▁rabbit	-839
gan	-840
▁right	-841
▁place	-842
▁us	-843
bye	-844
▁sound	-845
bbed	-846
▁ru	-847
▁quickly	-848
▁yell	-849
▁follow	-850
▁cr	-851
▁replied	-852
▁use	-853
▁bright	-854
lease	-855
▁watched	-856
▁dress	-857
▁Spot	-858
▁de	-859
ange	-860
fere	-861
▁became	-862
▁tou	-863
day	-864
▁differe	-865
ath	-866
▁mor	-867
ered	-868
▁ar	-869
▁sure	-870
co	-871
ndma	-872
▁cake	-873
We	-874
▁child	-875
▁curi	-876
▁high	-877
▁been	-878
▁mag	-879
ount	-880
▁Jane	-881
▁store	-882
▁our	-883
▁warm	-884
▁ye	-885
aught	-886
▁squ	-887
▁hop	-888
▁face	-889
▁goodbye	-890
▁forg	-891
more	-892
▁anymore	-893
▁different	-894
▁Th	-895
▁closer	-896
▁does	-897
Look	-898
leep	-899
ng	-900
▁curious	-901
▁cook	-902
▁tell	-903
▁am	-904
▁voice	-905
▁night	-906
itc	-907
ila	-908
imes	-909
▁Sarah	-910
▁pain	-911
▁bel	-912
ired	-913
▁butter	-914
▁open	-915
ached	-916
▁fav	-917
ey	-918
▁first	-919
▁helped	-920
▁Lila	-921
▁fell	-922
ull	-923
▁Everyone	-924
▁cont	-925
▁happened	-926
▁z	-927
▁lea	-928
▁sees	-929
▁three	-930
iss	-931
Can	-932
▁kitc	-933
▁kitchen	-934
▁pull	-935
▁fire	-936
▁flo	-937
▁birds	-938
▁grabbed	-939
▁sweet	-940
▁story	-941
▁block	-942
▁here	-943
▁only	-944
▁kid	-945
▁brother	-946
▁dr	-947
unny	-948
▁glad	-949
▁sand	-950
▁bit	-951
▁grass	-952
▁realized	-953
ppy	-954
▁In	-955
ater	-956
▁jumped	-957
orn	-958
▁beh	-959
▁mon	-960
▁per	-961
▁draw	-962
▁stop	-963
▁reached	-964
▁Do	-965
▁cra	-966
▁sing	-967
ins	-968
▁That	-969
▁having	-970
▁mess	-971
zy	-972
nts	-973
▁rest	-974
▁ba	-975
▁through	-976
▁tri	-977
▁prin	-978
air	-979
▁ate	-980
▁soft	-981
▁pap	-982
▁less	-983
isy	-984
▁ready	-985
▁yummy	-986
where	-987
Mom	-988
▁world	-989
▁hat	-990
akes	-991
▁game	-992
▁Let	-993
▁fix	-994
▁really	-995
▁lady	-996
▁shouted	-997
▁pare	-998
▁favor	-999
oss	-1000
ass	-1001
▁began	-1002
ely	-1003
▁favorite	-1004
▁himself	-1005
▁underst	-1006
▁cut	-1007
▁tired	-1008
▁magic	-1009
▁duck	-1010
fully	-1011
▁pretend	-1012
ken	-1013
▁used	-1014
▁mum	-1015
▁tast	-1016
▁butterf	-1017
ather	-1018
uff	-1019
▁thing	-1020
▁done	-1021
▁worry	-1022
▁coming	-1023
ign	-1024
▁making	-1025
illed	-1026
▁catch	-1027
▁Can	-1028
▁kids	-1029
▁funny	-1030
▁name	-1031
eddy	-1032
Wow	-1033
▁Joe	-1034
▁seen	-1035
▁Sally	-1036
▁Fin	-1037
▁pond	-1038
▁looks	-1039
▁cars	-1040
▁cried	-1041
▁ste	-1042
▁another	-1043
ient	-1044
▁top	-1045
▁why	-1046
▁prom	-1047
olly	-1048
ster	-1049
▁waved	-1050
▁flower	-1051
▁bag	-1052
▁part	-1053
▁bunny	-1054
▁hair	-1055
▁parents	-1056
▁touch	-1057
bo	-1058
ards	-1059
▁paper	-1060
▁gi	-1061
▁din	-1062
Don	-1063
▁Tommy	-1064
▁light	-1065
▁green	-1066
▁dri	-1067
▁cool	-1068
▁delic	-1069
▁dro	-1070
▁Benny	-1071
▁lesson	-1072
▁hole	-1073
▁swim	-1074
▁fro	-1075
▁trees	-1076
iver	-1077
▁yellow	-1078
▁surprise	-1079
▁behind	-1080
▁remembered	-1081
▁floor	-1082
oney	-1083
▁hold	-1084
hy	-1085
ued	-1086
mer	-1087
▁worked	-1088
▁full	-1089
▁thank	-1090
▁running	-1091
rel	-1092
▁hopped	-1093
ation	-1094
▁sleep	-1095
andy	-1096
▁wished	-1097
▁spot	-1098
▁smell	-1099
▁set	-1100
ike	-1101
▁cold	-1102
▁lost	-1103
▁sat	-1104
▁blocks	-1105
▁happily	-1106
us	-1107
▁read	-1108
▁wear	-1109
▁doing	-1110
▁dream	-1111
▁needed	-1112
▁dark	-1113
▁mouse	-1114
▁stre	-1115
▁bow	-1116
aisy	-1117
▁wood	-1118
▁Em	-1119
▁slow	-1120
▁laugh	-1121
ren	-1122
▁butterfly	-1123
▁sho	-1124
▁At	-1125
▁carefully	-1126
▁tall	-1127
▁years	-1128
▁-	-1129
▁left	-1130
▁likes	-1131
▁surprised	-1132
▁hill	-1133
▁window	-1134
▁frog	-1135
▁swing	-1136
▁enjoyed	-1137
▁held	-1138
▁finished	-1139
▁snow	-1140
▁hear	-1141
▁move	-1142
ens	-1143
▁buy	-1144
▁There	-1145
".	-1146
▁wrong	-1147
▁K	-1148
▁ice	-1149
▁perf	-1150
ined	-1151
▁followed	-1152
▁air	-1153
▁Finally	-1154
▁arri	-1155
▁lion	-1156
ul	-1157
▁fair	-1158
▁Jim	-1159
▁Now	-1160
▁herself	-1161
▁hid	-1162
▁anything	-1163
▁contin	-1164
▁Billy	-1165
Hell	-1166
Hello	-1167
▁hun	-1168
▁close	-1169
▁dir	-1170
▁children	-1171
▁To	-1172
▁bug	-1173
▁friendly	-1174
cess	-1175
▁rel	-1176
▁cast	-1177
▁table	-1178
asure	-1179
TMs	-1180
▁build	-1181
▁bus	-1182
▁arm	-1183
▁forgot	-1184
▁wonderful	-1185
▁Daisy	-1186
▁might	-1187
▁arrived	-1188
ds	-1189
ield	-1190
▁delicious	-1191
▁understand	-1192
▁Jen	-1193
▁agre	-1194
▁el	-1195
▁tight	-1196
▁hot	-1197
▁please	-1198
▁colors	-1199
▁grandma	-1200
▁someone	-1201
▁Molly	-1202
ner	-1203
▁song	-1204
▁Gra	-1205
▁count	-1206
▁books	-1207
▁filled	-1208
▁gone	-1209
▁continued	-1210
▁broken	-1211
▁able	-1212
▁leaves	-1213
▁scre	-1214
ash	-1215
▁gent	-1216
av	-1217
▁else	-1218
▁wants	-1219
▁creat	-1220
ask	-1221
▁This	-1222
▁vis	-1223
▁wall	-1224
lf	-1225
shed	-1226
▁yes	-1227
▁baby	-1228
uffy	-1229
atter	-1230
▁pink	-1231
▁break	-1232
room	-1233
▁res	-1234
man	-1235
ich	-1236
▁poin	-1237
gon	-1238
▁amazing	-1239
▁gu	-1240
ries	-1241
▁mar	-1242
▁Maybe	-1243
▁getting	-1244
icy	-1245
▁enough	-1246
▁pictures	-1247
▁fight	-1248
▁white	-1249
oup	-1250
▁comp	-1251
▁castle	-1252
▁agreed	-1253
▁dinner	-1254
row	-1255
irrel	-1256
▁mus	-1257
▁moment	-1258
▁stayed	-1259
▁fall	-1260
▁morning	-1261
▁mother	-1262
▁cookies	-1263
ced	-1264
▁Amy	-1265
app	-1266
▁scary	-1267
▁trying	-1268
▁climbed	-1269
▁fur	-1270
▁finally	-1271
▁sometimes	-1272
▁sail	-1273
▁others	-1274
▁wet	-1275
▁pi	-1276
▁ju	-1277
▁smiles	-1278
▁hungry	-1279
ctor	-1280
▁squirrel	-1281
▁Jill	-1282
▁talk	-1283
ons	-1284
ence	-1285
▁clot	-1286
▁met	-1287
▁clothes	-1288
▁brought	-1289
ama	-1290
apped	-1291
ister	-1292
red	-1293
oom	-1294
▁roll	-1295
▁turned	-1296
▁perfect	-1297
ere	-1298
▁daddy	-1299
lc	-1300
▁makes	-1301
▁cream	-1302
▁few	-1303
▁listened	-1304
oring	-1305
ee	-1306
▁tail	-1307
▁everything	-1308
ance	-1309
▁wasn	-1310
▁spl	-1311
▁strange	-1312
rot	-1313
▁sear	-1314
▁balloon	-1315
▁pol	-1316
▁beach	-1317
▁puppy	-1318
▁joy	-1319
▁sit	-1320
ated	-1321
▁What	-1322
ower	-1323
▁ride	-1324
der	-1325
zz	-1326
▁waited	-1327
▁spark	-1328
▁thre	-1329
▁music	-1330
wl	-1331
▁amazed	-1332
ever	-1333
▁Fl	-1334
▁alone	-1335
amp	-1336
▁visit	-1337
▁silly	-1338
▁danger	-1339
ucky	-1340
key	-1341
▁Soon	-1342
▁teddy	-1343
ott	-1344
▁asks	-1345
▁pet	-1346
▁woods	-1347
ope	-1348
▁deep	-1349
▁All	-1350
ang	-1351
▁hide	-1352
eter	-1353
▁grow	-1354
▁leave	-1355
▁sister	-1356
▁side	-1357
ugg	-1358
▁pie	-1359
Oh	-1360
▁cloud	-1361
amed	-1362
▁flying	-1363
med	-1364
ssed	-1365
▁lake	-1366
▁pulled	-1367
This	-1368
▁fox	-1369
▁promised	-1370
▁pat	-1371
gg	-1372
ix	-1373
▁dance	-1374
▁towards	-1375
eces	-1376
▁treasure	-1377
me	-1378
▁sec	-1379
▁field	-1380
ames	-1381
▁pieces	-1382
ises	-1383
▁plan	-1384
ph	-1385
▁runs	-1386
▁shared	-1387
Maybe	-1388
▁bigger	-1389
cket	-1390
ained	-1391
▁ve	-1392
▁won	-1393
▁thinks	-1394
▁em	-1395
▁land	-1396
▁moral	-1397
thy	-1398
▁treat	-1399
But	-1400
▁owner	-1401
▁living	-1402
▁pen	-1403
▁ele	-1404
▁bran	-1405
▁grate	-1406
▁bott	-1407
▁dolls	-1408
▁shar	-1409
▁candy	-1410
igg	-1411
avy	-1412
▁party	-1413
Okay	-1414
▁everywhere	-1415
▁grateful	-1416
cle	-1417
set	-1418
▁cup	-1419
▁blank	-1420
▁bike	-1421
▁slowly	-1422
outh	-1423
▁paint	-1424
▁job	-1425
▁such	-1426
sw	-1427
▁Mr	-1428
▁belie	-1429
▁worried	-1430
▁join	-1431
▁welc	-1432
▁mouth	-1433
▁blanket	-1434
▁faster	-1435
▁plant	-1436
ret	-1437
fort	-1438
ually	-1439
▁answ	-1440
▁broke	-1441
unch	-1442
▁money	-1443
ling	-1444
iet	-1445
▁shap	-1446
▁gif	-1447
▁reach	-1448
▁magical	-1449
▁Mama	-1450
▁snack	-1451
▁bar	-1452
▁colorful	-1453
ire	-1454
ident	-1455
uit	-1456
ased	-1457
▁helping	-1458
▁princess	-1459
▁doctor	-1460
▁race	-1461
▁dragon	-1462
▁acc	-1463
▁river	-1464
▁nap	-1465
▁sign	-1466
less	-1467
▁pro	-1468
▁quiet	-1469
▁crying	-1470
orm	-1471
ipped	-1472
▁black	-1473
ze	-1474
▁most	-1475
ol	-1476
▁dangerous	-1477
Sure	-1478
▁stepped	-1479
▁train	-1480
▁att	-1481
▁smart	-1482
▁bowl	-1483
▁farmer	-1484
▁pa	-1485
▁mix	-1486
▁heavy	-1487
▁Jimmy	-1488
▁pot	-1489
▁monster	-1490
▁je	-1491
▁stu	-1492
ored	-1493
ming	-1494
bble	-1495
▁twins	-1496
▁Daddy	-1497
▁words	-1498
Mommy	-1499
ross	-1500
ear	-1501
▁dirty	-1502
▁across	-1503
▁Emma	-1504
▁disapp	-1505
▁eating	-1506
▁same	-1507
▁stuck	-1508
▁closed	-1509
OK	-1510
▁Just	-1511
▁fruit	-1512
▁threw	-1513
▁must	-1514
▁wouldn	-1515
▁buck	-1516
cked	-1517
▁tower	-1518
▁Fluffy	-1519
▁spr	-1520
▁hig	-1521
▁win	-1522
▁accident	-1523
The	-1524
▁cray	-1525
▁monkey	-1526
▁carrot	-1527
Why	-1528
ord	-1529
▁bath	-1530
▁heal	-1531
▁feels	-1532
▁teac	-1533
iting	-1534
▁bite	-1535
eared	-1536
Hi	-1537
asket	-1538
umb	-1539
▁pushed	-1540
▁Mary	-1541
▁butt	-1542
▁town	-1543
chool	-1544
▁past	-1545
▁basket	-1546
ipp	-1547
▁heart	-1548
br	-1549
▁hoped	-1550
▁without	-1551
▁hit	-1552
▁coll	-1553
▁clapped	-1554
▁Mum	-1555
▁pack	-1556
▁believe	-1557
▁Grandma	-1558
▁stand	-1559
▁pers	-1560
▁forget	-1561
▁fairy	-1562
▁school	-1563
▁cheered	-1564
phant	-1565
▁bee	-1566
▁smo	-1567
▁fence	-1568
▁lon	-1569
de	-1570
▁Wh	-1571
orrow	-1572
▁cour	-1573
▁yard	-1574
▁brown	-1575
▁Tw	-1576
▁chair	-1577
▁drove	-1578
ract	-1579
▁adventures	-1580
▁noises	-1581
ier	-1582
▁higher	-1583
ventually	-1584
▁lonely	-1585
▁teacher	-1586
▁elephant	-1587
ors	-1588
▁today	-1589
TMt	-1590
ney	-1591
▁pocket	-1592
▁upset	-1593
cy	-1594
vel	-1595
▁turns	-1596
▁swings	-1597
▁gentle	-1598
▁longer	-1599
▁wings	-1600
▁welcome	-1601
▁games	-1602
ts	-1603
▁course	-1604
▁ben	-1605
▁explained	-1606
▁free	-1607
▁neck	-1608
▁suddenly	-1609
▁leg	-1610
▁Inside	-1611
▁jour	-1612
ead	-1613
▁secret	-1614
▁star	-1615
issed	-1616
ountain	-1617
▁whe	-1618
▁dry	-1619
▁corn	-1620
▁soup	-1621
▁bring	-1622
▁shop	-1623
▁inst	-1624
▁neigh	-1625
▁happen	-1626
▁dropped	-1627
▁plac	-1628
▁hugs	-1629
yard	-1630
▁trou	-1631
▁piece	-1632
▁min	-1633
▁throw	-1634
▁neighb	-1635
▁swam	-1636
ible	-1637
▁stories	-1638
▁sang	-1639
▁backyard	-1640
itting	-1641
▁Later	-1642
▁Their	-1643
ment	-1644
▁wish	-1645
▁rocks	-1646
▁bucket	-1647
pect	-1648
▁well	-1649
▁late	-1650
ek	-1651
▁naught	-1652
▁apple	-1653
▁belong	-1654
▁owl	-1655
▁ph	-1656
ches	-1657
▁naughty	-1658
ces	-1659
▁orange	-1660
▁taking	-1661
▁along	-1662
▁lunch	-1663
ocked	-1664
▁drink	-1665
fused	-1666
ung	-1667
▁jar	-1668
▁exploring	-1669
▁sea	-1670
▁es	-1671
▁cou	-1672
▁young	-1673
bow	-1674
▁dist	-1675
▁seemed	-1676
▁Al	-1677
▁singing	-1678
oun	-1679
▁shook	-1680
▁mat	-1681
▁ca	-1682
▁moved	-1683
▁caught	-1684
▁war	-1685
▁nearby	-1686
▁pig	-1687
▁key	-1688
▁wise	-1689
▁Tweet	-1690
▁shoes	-1691
▁stars	-1692
▁Sammy	-1693
▁tiny	-1694
▁though	-1695
▁woke	-1696
▁Thank	-1697
▁tom	-1698
▁des	-1699
▁miss	-1700
llo	-1701
▁af	-1702
▁mail	-1703
ail	-1704
ions	-1705
vered	-1706
cer	-1707
▁cho	-1708
▁sick	-1709
col	-1710
▁bench	-1711
ape	-1712
▁carry	-1713
▁relie	-1714
Lily	-1715
▁nest	-1716
▁shapes	-1717
cing	-1718
Do	-1719
ittens	-1720
▁arms	-1721
▁rainbow	-1722
idge	-1723
▁branch	-1724
▁kite	-1725
▁mine	-1726
▁driver	-1727
▁juice	-1728
▁takes	-1729
▁busy	-1730
▁ob	-1731
aughter	-1732
raid	-1733
▁afraid	-1734
let	-1735
▁wondered	-1736
itch	-1737
▁mad	-1738
ward	-1739
▁cir	-1740
ining	-1741
▁sitting	-1742
▁cow	-1743
▁mark	-1744
ese	-1745
per	-1746
▁mil	-1747
▁street	-1748
cks	-1749
▁comes	-1750
▁inv	-1751
▁accidentally	-1752
▁round	-1753
▁nose	-1754
▁disco	-1755
▁king	-1756
▁3	-1757
▁forever	-1758
▁year	-1759
▁farm	-1760
▁whist	-1761
▁band	-1762
▁peace	-1763
▁lift	-1764
▁sounds	-1765
▁daughter	-1766
▁gift	-1767
to	-1768
▁egg	-1769
▁cute	-1770
bby	-1771
thday	-1772
ball	-1773
▁exciting	-1774
adow	-1775
▁cozy	-1776
▁fit	-1777
ity	-1778
▁purp	-1779
▁letter	-1780
▁coat	-1781
▁wra	-1782
ours	-1783
▁boun	-1784
▁power	-1785
▁relieved	-1786
▁hello	-1787
▁nothing	-1788
▁patient	-1789
erest	-1790
▁holding	-1791
▁interest	-1792
▁laughing	-1793
▁huge	-1794
▁journey	-1795
pping	-1796
shine	-1797
▁mist	-1798
▁imag	-1799
og	-1800
▁spoon	-1801
▁swimming	-1802
itten	-1803
▁gigg	-1804
▁milk	-1805
▁days	-1806
▁sunshine	-1807
▁life	-1808
▁comfort	-1809
▁fing	-1810
▁purple	-1811
▁Come	-1812
▁Jenny	-1813
▁later	-1814
▁touched	-1815
▁instead	-1816
▁act	-1817
▁birthday	-1818
Of	-1819
irt	-1820
gged	-1821
eth	-1822
▁road	-1823
▁cheese	-1824
▁inc	-1825
ped	-1826
▁With	-1827
▁ear	-1828
▁sunny	-1829
alm	-1830
unt	-1831
▁ret	-1832
▁gives	-1833
▁searched	-1834
ness	-1835
▁fan	-1836
▁bread	-1837
▁bought	-1838
▁pointed	-1839
▁anyone	-1840
▁onto	-1841
▁bottle	-1842
board	-1843
▁pres	-1844
▁ducks	-1845
ize	-1846
▁storm	-1847
▁hope	-1848
▁return	-1849
▁lucky	-1850
▁plane	-1851
▁tasty	-1852
▁cave	-1853
▁creature	-1854
▁watching	-1855
blem	-1856
▁grab	-1857
Hey	-1858
▁Ell	-1859
▁pudd	-1860
▁Mittens	-1861
▁problem	-1862
▁ce	-1863
▁smiling	-1864
ndp	-1865
▁rope	-1866
▁kick	-1867
▁Somet	-1868
▁spo	-1869
▁crayons	-1870
▁shell	-1871
▁eas	-1872
aur	-1873
▁spid	-1874
els	-1875
▁meet	-1876
▁sharp	-1877
▁promise	-1878
▁snowman	-1879
▁person	-1880
▁honey	-1881
▁danced	-1882
ond	-1883
▁puzz	-1884
epend	-1885
▁interesting	-1886
▁Ch	-1887
ten	-1888
▁talked	-1889
▁sandw	-1890
▁button	-1891
▁quest	-1892
▁collect	-1893
▁bush	-1894
ove	-1895
▁zoom	-1896
▁trouble	-1897
▁wide	-1898
▁card	-1899
▁kiss	-1900
itty	-1901
▁smelled	-1902
▁spin	-1903
▁present	-1904
▁ap	-1905
▁ent	-1906
▁lovely	-1907
▁apples	-1908
▁pract	-1909
▁adm	-1910
▁giant	-1911
▁write	-1912
▁healthy	-1913
ont	-1914
▁clouds	-1915
▁pill	-1916
▁shining	-1917
▁gather	-1918
izz	-1919
▁par	-1920
umber	-1921
▁rolled	-1922
isa	-1923
▁cheer	-1924
▁places	-1925
ndpa	-1926
▁front	-1927
Good	-1928
▁puts	-1929
▁Emily	-1930
owed	-1931
▁loves	-1932
▁which	-1933
▁saf	-1934
▁vill	-1935
▁sur	-1936
▁path	-1937
▁How	-1938
▁spotted	-1939
ub	-1940
▁tun	-1941
▁hon	-1942
▁worm	-1943
▁Re	-1944
▁impre	-1945
▁clever	-1946
▁shr	-1947
▁organ	-1948
▁myster	-1949
bar	-1950
▁lay	-1951
▁matter	-1952
▁feather	-1953
▁tasted	-1954
▁Together	-1955
▁eag	-1956
▁wild	-1957
▁zoo	-1958
▁med	-1959
▁trip	-1960
▁prot	-1961
een	-1962
▁di	-1963
▁bark	-1964
▁respect	-1965
ets	-1966
▁St	-1967
▁hor	-1968
▁suc	-1969
up	-1970
▁thin	-1971
▁couch	-1972
▁pop	-1973
▁whole	-1974
ching	-1975
▁foot	-1976
▁protect	-1977
erly	-1978
▁asleep	-1979
▁pile	-1980
ular	-1981
▁spent	-1982
▁building	-1983
▁Lisa	-1984
▁dirt	-1985
cean	-1986
▁ocean	-1987
▁lad	-1988
▁knee	-1989
▁goes	-1990
▁coin	-1991
▁spider	-1992
barra	-1993
▁wearing	-1994
▁embarra	-1995
▁mountain	-1996
▁pretended	-1997
nic	-1998
▁slid	-1999
▁picnic	-2000
▁screamed	-2001
▁faces	-2002
▁phone	-2003
▁teach	-2004
▁Sometimes	-2005
▁sack	-2006
▁snake	-2007
▁answer	-2008
▁seat	-2009
▁appeared	-2010
▁confused	-2011
Come	-2012
oose	-2013
▁gently	-2014
▁talking	-2015
ife	-2016
▁sal	-2017
▁furry	-2018
eb	-2019
▁helpful	-2020
▁mud	-2021
▁drive	-2022
la	-2023
lex	-2024
▁mind	-2025
▁pan	-2026
▁pass	-2027
▁supp	-2028
▁ladder	-2029
▁push	-2030
▁oven	-2031
▁ign	-2032
▁Jake	-2033
▁cart	-2034
ale	-2035
▁rec	-2036
▁ser	-2037
▁whenever	-2038
arge	-2039
▁val	-2040
▁Le	-2041
▁corner	-2042
unk	-2043
▁Go	-2044
▁wom	-2045
▁chocol	-2046
▁calm	-2047
▁last	-2048
œI	-2049
▁splas	-2050
▁woman	-2051
▁Bu	-2052
▁ban	-2053
▁neighbor	-2054
▁tool	-2055
▁Peter	-2056
▁mach	-2057
▁blew	-2058
▁fixed	-2059
read	-2060
▁ring	-2061
▁fighting	-2062
▁waiting	-2063
▁wave	-2064
▁spicy	-2065
▁finish	-2066
▁forgive	-2067
▁tid	-2068
bbles	-2069
▁feet	-2070
▁minut	-2071
▁spread	-2072
▁delight	-2073
▁taste	-2074
▁Be	-2075
▁ash	-2076
▁teeth	-2077
▁eventually	-2078
▁live	-2079
▁embarrassed	-2080
▁pour	-2081
▁horse	-2082
▁tomorrow	-2083
▁remind	-2084
▁bell	-2085
▁scar	-2086
▁cookie	-2087
▁smooth	-2088
▁Mummy	-2089
ones	-2090
▁Teddy	-2091
▁ant	-2092
old	-2093
▁shy	-2094
▁fold	-2095
▁cloth	-2096
▁chocolate	-2097
▁While	-2098
▁tries	-2099
▁colour	-2100
oph	-2101
▁step	-2102
▁tea	-2103
▁large	-2104
▁neckl	-2105
▁songs	-2106
▁hiding	-2107
▁banan	-2108
Tom	-2109
ert	-2110
▁kitten	-2111
▁paw	-2112
▁spray	-2113
▁spe	-2114
urse	-2115
▁rob	-2116
▁hum	-2117
▁pool	-2118
▁shirt	-2119
ery	-2120
▁emp	-2121
▁ple	-2122
▁cann	-2123
▁wash	-2124
▁pizz	-2125
▁empty	-2126
ungle	-2127
▁Some	-2128
▁village	-2129
▁creative	-2130
lebr	-2131
▁bugs	-2132
▁grew	-2133
▁jungle	-2134
▁tidy	-2135
▁tightly	-2136
als	-2137
getable	-2138
▁cannot	-2139
dge	-2140
▁coo	-2141
▁knocked	-2142
▁whistle	-2143
▁vegetable	-2144
▁rep	-2145
▁sol	-2146
▁celebr	-2147
umpy	-2148
airs	-2149
ato	-2150
nny	-2151
▁TV	-2152
den	-2153
▁chick	-2154
▁rude	-2155
▁wore	-2156
▁trust	-2157
St	-2158
arm	-2159
▁barked	-2160
▁robot	-2161
▁wip	-2162
▁peaceful	-2163
▁Everywhere	-2164
▁puddle	-2165
▁sparkly	-2166
ush	-2167
▁necklace	-2168
My	-2169
▁Johnny	-2170
▁'	-2171
ground	-2172
▁hears	-2173
▁chased	-2174
ighed	-2175
▁pizza	-2176
▁Alice	-2177
▁Please	-2178
▁stret	-2179
▁self	-2180
▁stir	-2181
▁meant	-2182
ned	-2183
▁bal	-2184
▁moon	-2185
▁gun	-2186
▁stra	-2187
▁maybe	-2188
▁puzzle	-2189
▁hidden	-2190
▁pin	-2191
▁save	-2192
ian	-2193
pit	-2194
▁treats	-2195
▁meadow	-2196
▁gen	-2197
▁carrots	-2198
box	-2199
inted	-2200
lower	-2201
pper	-2202
▁mot	-2203
era	-2204
▁Sus	-2205
▁snacks	-2206
▁sticks	-2207
dle	-2208
▁carried	-2209
▁missed	-2210
gly	-2211
ustr	-2212
ult	-2213
▁net	-2214
▁forward	-2215
▁flut	-2216
▁seed	-2217
▁tells	-2218
▁rocket	-2219
▁splash	-2220
▁av	-2221
▁group	-2222
▁bat	-2223
▁crab	-2224
▁sour	-2225
▁prince	-2226
▁machine	-2227
▁ber	-2228
▁clear	-2229
▁shelf	-2230
▁ugly	-2231
▁string	-2232
▁Br	-2233
▁jumping	-2234
▁selfish	-2235
ird	-2236
▁disappo	-2237
▁Even	-2238
aul	-2239
▁exp	-2240
▁gold	-2241
iger	-2242
elly	-2243
▁lem	-2244
kin	-2245
▁leaf	-2246
▁frustr	-2247
▁burn	-2248
▁Kitty	-2249
▁knowing	-2250
▁gray	-2251
▁stood	-2252
ying	-2253
▁legs	-2254
▁roar	-2255
▁landed	-2256
▁police	-2257
Please	-2258
▁Little	-2259
▁yelled	-2260
most	-2261
▁sharing	-2262
▁honest	-2263
▁Leo	-2264
▁hos	-2265
▁pir	-2266
▁circ	-2267
ator	-2268
▁stone	-2269
eterm	-2270
hin	-2271
▁blow	-2272
▁whis	-2273
▁Z	-2274
▁Why	-2275
▁determ	-2276
▁standing	-2277
▁drew	-2278
▁plate	-2279
▁breath	-2280
▁almost	-2281
▁gar	-2282
▁nods	-2283
vous	-2284
▁fancy	-2285
▁frustrated	-2286
Stop	-2287
▁seek	-2288
▁number	-2289
▁test	-2290
▁sleepy	-2291
▁disappointed	-2292
iff	-2293
orry	-2294
▁Rex	-2295
▁these	-2296
aking	-2297
uce	-2298
itter	-2299
▁fear	-2300
▁scream	-2301
▁powerful	-2302
▁mysterious	-2303
▁feed	-2304
▁pillow	-2305
▁hours	-2306
▁gener	-2307
▁polite	-2308
▁hospit	-2309
▁fil	-2310
pack	-2311
▁hospital	-2312
▁gas	-2313
▁jew	-2314
▁line	-2315
▁medic	-2316
ffe	-2317
▁plants	-2318
aser	-2319
▁cries	-2320
▁decor	-2321
ecially	-2322
▁ashamed	-2323
pecially	-2324
▁ner	-2325
ote	-2326
▁reg	-2327
▁returned	-2328
issors	-2329
ual	-2330
izzy	-2331
▁Don	-2332
▁Mark	-2333
▁understood	-2334
ops	-2335
▁sheep	-2336
▁nervous	-2337
▁medicine	-2338
▁scissors	-2339
ensive	-2340
▁twirl	-2341
ho	-2342
▁spoil	-2343
▁expensive	-2344
ony	-2345
▁shore	-2346
▁packed	-2347
▁especially	-2348
▁scarf	-2349
osaur	-2350
assed	-2351
▁pay	-2352
▁bored	-2353
▁passed	-2354
▁dancing	-2355
▁sandwich	-2356
▁vegetables	-2357
▁nut	-2358
▁taught	-2359
▁van	-2360
▁garage	-2361
▁poor	-2362
▁saved	-2363
▁grumpy	-2364
▁closet	-2365
ina	-2366
▁pri	-2367
light	-2368
▁become	-2369
▁hel	-2370
▁mummy	-2371
▁scr	-2372
▁taken	-2373
▁finger	-2374
▁ruined	-2375
▁gate	-2376
▁drum	-2377
▁comfortable	-2378
▁fill	-2379
▁messy	-2380
iddle	-2381
▁cand	-2382
▁dinosaur	-2383
▁Susie	-2384
▁Today	-2385
▁easy	-2386
▁sold	-2387
▁bedroom	-2388
▁Bl	-2389
▁exam	-2390
▁ones	-2391
▁pleased	-2392
▁generous	-2393
ym	-2394
ano	-2395
▁class	-2396
▁asking	-2397
▁success	-2398
▁wis	-2399
▁yourself	-2400
▁working	-2401
▁determined	-2402
oop	-2403
▁pray	-2404
▁ship	-2405
▁yours	-2406
▁fig	-2407
▁glue	-2408
▁giggled	-2409
▁hopping	-2410
▁sailed	-2411
imp	-2412
▁balls	-2413
▁motor	-2414
▁stuff	-2415
▁boring	-2416
▁cri	-2417
▁vase	-2418
▁glass	-2419
▁wagged	-2420
▁kissed	-2421
▁hur	-2422
▁mov	-2423
▁often	-2424
▁mistake	-2425
▁OK	-2426
ates	-2427
▁sighed	-2428
▁esc	-2429
Where	-2430
▁dest	-2431
▁excite	-2432
▁minutes	-2433
▁playground	-2434
▁true	-2435
▁wheel	-2436
▁lead	-2437
▁brush	-2438
▁chest	-2439
▁chew	-2440
▁answered	-2441
erp	-2442
▁boys	-2443
▁weak	-2444
▁clown	-2445
▁waves	-2446
▁gathered	-2447
iness	-2448
▁fake	-2449
▁spend	-2450
▁thankful	-2451
illi	-2452
▁Brown	-2453
▁tears	-2454
Ben	-2455
▁rad	-2456
mb	-2457
▁tick	-2458
▁middle	-2459
▁content	-2460
elves	-2461
▁hang	-2462
▁jelly	-2463
▁pus	-2464
▁team	-2465
ots	-2466
▁eld	-2467
▁gets	-2468
▁excitement	-2469
▁cap	-2470
▁lemon	-2471
▁questions	-2472
▁eggs	-2473
▁lock	-2474
arl	-2475
▁flag	-2476
▁tent	-2477
▁fridge	-2478
▁skipped	-2479
▁change	-2480
▁smelly	-2481
▁wrote	-2482
▁rid	-2483
▁drawing	-2484
▁lit	-2485
▁relax	-2486
Who	-2487
▁add	-2488
▁fruits	-2489
▁discovered	-2490
oof	-2491
aged	-2492
Sorry	-2493
▁bridge	-2494
▁knight	-2495
ete	-2496
▁sight	-2497
▁bathroom	-2498
▁board	-2499
▁match	-2500
▁mir	-2501
▁dogs	-2502
Are	-2503
▁Ella	-2504
▁knife	-2505
▁shows	-2506
▁clap	-2507
▁lazy	-2508
▁wolf	-2509
▁queen	-2510
▁fluffy	-2511
▁sil	-2512
▁tag	-2513
▁covered	-2514
que	-2515
▁check	-2516
▁sweetie	-2517
▁famous	-2518
▁mighty	-2519
ork	-2520
cept	-2521
▁ord	-2522
▁bake	-2523
▁drank	-2524
▁picks	-2525
▁distance	-2526
▁mic	-2527
ella	-2528
▁ang	-2529
▁nod	-2530
▁disappeared	-2531
▁Mrs	-2532
▁Fred	-2533
▁deer	-2534
▁lying	-2535
ror	-2536
▁boss	-2537
erpill	-2538
▁crown	-2539
▁towel	-2540
▁wander	-2541
▁caterpill	-2542
▁Eventually	-2543
usual	-2544
▁walks	-2545
▁unusual	-2546
▁fre	-2547
▁map	-2548
▁soap	-2549
▁eager	-2550
▁calling	-2551
ti	-2552
▁bone	-2553
▁fis	-2554
▁ind	-2555
▁shoot	-2556
▁moving	-2557
▁If	-2558
▁ed	-2559
▁sell	-2560
▁decide	-2561
▁elderly	-2562
obby	-2563
▁lose	-2564
▁stones	-2565
▁Blue	-2566
ination	-2567
▁borrow	-2568
Now	-2569
▁No	-2570
body	-2571
▁dig	-2572
▁dish	-2573
▁cover	-2574
▁cleaned	-2575
elp	-2576
▁micr	-2577
▁splashed	-2578
ating	-2579
▁End	-2580
▁glow	-2581
▁week	-2582
▁crawl	-2583
arth	-2584
▁cage	-2585
imed	-2586
▁cher	-2587
work	-2588
umbled	-2589
▁incred	-2590
▁hunt	-2591
▁feathers	-2592
▁banana	-2593
▁offered	-2594
asing	-2595
▁caterpillar	-2596
▁Pete	-2597
▁kindness	-2598
▁eye	-2599
alous	-2600
▁coins	-2601
▁juicy	-2602
▁father	-2603
▁U	-2604
▁nos	-2605
▁brilli	-2606
▁jealous	-2607
▁Dave	-2608
▁Tweety	-2609
▁branches	-2610
▁tape	-2611
▁cam	-2612
▁cost	-2613
▁bottom	-2614
▁mirror	-2615
▁organized	-2616
port	-2617
▁body	-2618
▁lamp	-2619
▁brilliant	-2620
▁rare	-2621
▁toug	-2622
fast	-2623
▁tie	-2624
▁craw	-2625
▁horn	-2626
▁thick	-2627
▁crawled	-2628
▁Sn	-2629
▁tunn	-2630
▁hurts	-2631
▁depend	-2632
▁balance	-2633
▁measure	-2634
▁colourful	-2635
▁bubbles	-2636
▁breakfast	-2637
▁impressed	-2638
Help	-2639
▁ext	-2640
▁licked	-2641
olog	-2642
ugar	-2643
▁hero	-2644
▁once	-2645
▁twist	-2646
▁incredible	-2647
▁fool	-2648
▁joke	-2649
▁rough	-2650
▁tiger	-2651
▁cross	-2652
▁trucks	-2653
▁fine	-2654
▁libr	-2655
▁Bella	-2656
▁boxes	-2657
▁tough	-2658
▁wagon	-2659
appy	-2660
selves	-2661
▁smoke	-2662
▁apolog	-2663
▁adventur	-2664
bin	-2665
▁Mar	-2666
▁cabin	-2667
▁managed	-2668
▁happening	-2669
?".	-2670
Tim	-2671
ilt	-2672
amond	-2673
▁flash	-2674
▁sugar	-2675
▁favour	-2676
▁realised	-2677
▁bitter	-2678
▁trunk	-2679
▁adventurous	-2680
▁wrapped	-2681
hip	-2682
▁jog	-2683
▁chase	-2684
▁falls	-2685
▁flute	-2686
▁noisy	-2687
rag	-2688
▁aw	-2689
▁sugg	-2690
▁suggest	-2691
▁favourite	-2692
▁added	-2693
▁dizzy	-2694
Me	-2695
▁ok	-2696
▁harm	-2697
▁melt	-2698
▁record	-2699
▁diamond	-2700
▁mixed	-2701
▁circles	-2702
▁foolish	-2703
▁sunf	-2704
▁market	-2705
ddy	-2706
▁pump	-2707
▁accept	-2708
lies	-2709
ured	-2710
▁jam	-2711
▁log	-2712
▁wand	-2713
▁guess	-2714
▁safely	-2715
yal	-2716
keep	-2717
land	-2718
▁extra	-2719
▁louder	-2720
ory	-2721
▁arg	-2722
▁Bobo	-2723
▁word	-2724
▁needs	-2725
▁lifted	-2726
ately	-2727
edient	-2728
▁cheerful	-2729
▁jack	-2730
▁magn	-2731
▁turt	-2732
▁shark	-2733
▁dependable	-2734
▁pil	-2735
▁ter	-2736
▁ears	-2737
apping	-2738
uggled	-2739
▁pointing	-2740
▁wrap	-2741
▁berries	-2742
▁dreamed	-2743
Be	-2744
▁moms	-2745
▁grown	-2746
▁jewel	-2747
▁against	-2748
▁grandpa	-2749
ira	-2750
▁pee	-2751
▁figure	-2752
▁giving	-2753
▁ham	-2754
▁grace	-2755
▁weal	-2756
▁frown	-2757
Well	-2758
▁bags	-2759
▁swan	-2760
▁movie	-2761
▁Whenever	-2762
▁twig	-2763
▁Mandy	-2764
▁dreams	-2765
▁balloons	-2766
▁belonged	-2767
head	-2768
ique	-2769
omed	-2770
laimed	-2771
▁learning	-2772
▁stronger	-2773
▁dolp	-2774
▁edge	-2775
▁exclaimed	-2776
▁yarn	-2777
▁sword	-2778
▁search	-2779
▁unique	-2780
▁slipped	-2781
emo	-2782
▁hats	-2783
▁loyal	-2784
▁choose	-2785
▁My	-2786
rage	-2787
▁Nemo	-2788
▁shake	-2789
▁loudly	-2790
▁enjoying	-2791
fic	-2792
oppy	-2793
iable	-2794
▁spun	-2795
▁obedient	-2796
▁happiness	-2797
anut	-2798
anged	-2799
▁tools	-2800
▁marble	-2801
ready	-2802
▁squee	-2803
▁laughs	-2804
▁rich	-2805
▁walls	-2806
▁lean	-2807
▁tele	-2808
▁camera	-2809
▁reliable	-2810
▁four	-2811
iv	-2812
ext	-2813
▁mod	-2814
▁unl	-2815
ature	-2816
▁already	-2817
▁cleaning	-2818
aw	-2819
▁angel	-2820
▁terri	-2821
▁diffic	-2822
oot	-2823
▁bull	-2824
▁clay	-2825
▁means	-2826
▁crayon	-2827
▁useful	-2828
ipe	-2829
▁goat	-2830
▁Bobby	-2831
▁buttons	-2832
▁painting	-2833
gy	-2834
ention	-2835
▁barn	-2836
▁straw	-2837
▁using	-2838
▁compet	-2839
▁Fr	-2840
umbers	-2841
▁bloom	-2842
▁stubb	-2843
▁tunnel	-2844
▁turtle	-2845
▁independ	-2846
▁tank	-2847
▁helps	-2848
▁scare	-2849
▁circle	-2850
▁difficult	-2851
cil	-2852
▁Dan	-2853
▁thu	-2854
▁norm	-2855
keeper	-2856
▁pencil	-2857
▁thoughtful	-2858
Here	-2859
▁fier	-2860
▁bushes	-2861
▁fright	-2862
ages	-2863
▁peanut	-2864
▁painted	-2865
▁nosy	-2866
▁sounded	-2867
zed	-2868
▁guit	-2869
▁Ducky	-2870
▁times	-2871
▁stream	-2872
▁gem	-2873
▁whale	-2874
▁office	-2875
▁counted	-2876
▁ref	-2877
▁bald	-2878
▁dove	-2879
▁skin	-2880
▁parrot	-2881
ums	-2882
▁liz	-2883
▁competit	-2884
▁stubborn	-2885
▁birdie	-2886
▁fierce	-2887
ado	-2888
wards	-2889
▁Mike	-2890
▁knows	-2891
▁toast	-2892
ye	-2893
▁rug	-2894
▁Alex	-2895
▁island	-2896
▁normal	-2897
▁invited	-2898
▁wealthy	-2899
▁swe	-2900
▁joined	-2901
▁saying	-2902
▁explored	-2903
ject	-2904
▁cro	-2905
cient	-2906
▁Rose	-2907
orge	-2908
▁icy	-2909
▁frag	-2910
▁soar	-2911
▁crack	-2912
▁weird	-2913
▁independent	-2914
▁notice	-2915
▁numbers	-2916
▁sunflower	-2917
▁mole	-2918
▁design	-2919
▁pirate	-2920
▁brothers	-2921
erry	-2922
inary	-2923
▁grap	-2924
▁bossy	-2925
▁fat	-2926
▁harder	-2927
▁smaller	-2928
▁built	-2929
▁spoiled	-2930
ines	-2931
ouses	-2932
▁prep	-2933
▁seem	-2934
▁guitar	-2935
▁stairs	-2936
▁ancient	-2937
▁march	-2938
▁lights	-2939
▁chicken	-2940
▁stumbled	-2941
▁rode	-2942
▁stri	-2943
▁enorm	-2944
▁fresh	-2945
▁sauce	-2946
▁picking	-2947
▁fountain	-2948
▁beet	-2949
▁cact	-2950
▁valu	-2951
▁escape	-2952
▁enormous	-2953
▁post	-2954
▁resc	-2955
▁seeds	-2956
▁poured	-2957
▁Grandpa	-2958
▁fragile	-2959
▁whisp	-2960
▁houses	-2961
▁Cl	-2962
▁suit	-2963
œLet	-2964
▁envel	-2965
▁reminded	-2966
▁mem	-2967
▁pow	-2968
ither	-2969
▁Soph	-2970
irp	-2971
▁bump	-2972
▁cudd	-2973
▁fork	-2974
▁kinds	-2975
▁trump	-2976
▁bounce	-2977
▁proudly	-2978
▁practice	-2979
▁hose	-2980
▁ways	-2981
▁penny	-2982
▁city	-2983
▁salad	-2984
▁costum	-2985
▁pepper	-2986
▁frightened	-2987
aid	-2988
pid	-2989
ache	-2990
▁chose	-2991
▁solve	-2992
▁cactus	-2993
▁shells	-2994
▁admired	-2995
▁fingers	-2996
▁searching	-2997
ola	-2998
▁Ge	-2999
▁half	-3000
▁roof	-3001
▁wake	-3002
▁tummy	-3003
▁thirst	-3004
▁showing	-3005
▁delighted	-3006
▁cone	-3007
▁dull	-3008
alk	-3009
dom	-3010
arsh	-3011
▁boats	-3012
▁nurse	-3013
▁barber	-3014
na	-3015
berry	-3016
▁beak	-3017
▁above	-3018
▁stage	-3019
▁study	-3020
▁stupid	-3021
▁excitedly	-3022
▁cop	-3023
▁space	-3024
▁batter	-3025
▁lizard	-3026
▁suggested	-3027
▁shone	-3028
▁compass	-3029
▁regular	-3030
▁flashlight	-3031
vice	-3032
anger	-3033
▁cere	-3034
▁attic	-3035
▁shape	-3036
▁locked	-3037
▁spilled	-3038
▁terrible	-3039
▁hoop	-3040
▁tooth	-3041
▁trumpet	-3042
▁valuable	-3043
time	-3044
▁news	-3045
▁Ellie	-3046
▁arrow	-3047
ress	-3048
▁yet	-3049
illie	-3050
▁desk	-3051
▁pant	-3052
▁Sandy	-3053
▁cheap	-3054
▁earth	-3055
▁kicked	-3056
▁serious	-3057
▁thirsty	-3058
▁successful	-3059
arry	-3060
▁low	-3061
▁char	-3062
▁George	-3063
het	-3064
inal	-3065
▁lab	-3066
▁clums	-3067
▁scrat	-3068
How	-3069
▁orig	-3070
com	-3071
▁ow	-3072
▁rat	-3073
▁Polly	-3074
▁stove	-3075
corn	-3076
▁Kim	-3077
▁avo	-3078
▁envelope	-3079
▁Paul	-3080
▁witch	-3081
▁impress	-3082
▁Sm	-3083
▁er	-3084
▁son	-3085
aghet	-3086
▁comb	-3087
▁stops	-3088
aghetti	-3089
▁thunder	-3090
▁brightly	-3091
▁themselves	-3092
iew	-3093
▁hay	-3094
▁law	-3095
▁bees	-3096
▁raced	-3097
▁stamp	-3098
▁screen	-3099
▁dreaming	-3100
▁sniff	-3101
▁careless	-3102
▁original	-3103
▁Lola	-3104
▁Next	-3105
▁Your	-3106
▁view	-3107
▁wiped	-3108
▁washed	-3109
▁changed	-3110
▁spaghetti	-3111
uth	-3112
▁Andy	-3113
▁helm	-3114
▁ending	-3115
▁stickers	-3116
▁beetle	-3117
▁rushed	-3118
▁warned	-3119
▁delicate	-3120
▁Joey	-3121
▁flex	-3122
isk	-3123
gest	-3124
▁mis	-3125
▁yog	-3126
ience	-3127
▁carp	-3128
▁steal	-3129
▁those	-3130
berries	-3131
▁clumsy	-3132
▁leaving	-3133
▁persist	-3134
▁compassion	-3135
!".	-3136
oomy	-3137
▁dead	-3138
▁travel	-3139
▁biggest	-3140
▁popcorn	-3141
▁enc	-3142
▁tor	-3143
▁bean	-3144
▁dough	-3145
▁finding	-3146
▁pumpkin	-3147
▁Red	-3148
▁ing	-3149
▁sne	-3150
ision	-3151
▁tomato	-3152
▁discover	-3153
▁wire	-3154
▁library	-3155
robe	-3156
uring	-3157
▁snee	-3158
redient	-3159
▁deliver	-3160
▁graceful	-3161
▁ingredient	-3162
▁unk	-3163
▁meal	-3164
▁sorts	-3165
▁cereal	-3166
▁complet	-3167
▁telling	-3168
▁early	-3169
▁knock	-3170
▁uncle	-3171
▁peeked	-3172
▁imagined	-3173
rell	-3174
▁task	-3175
▁trap	-3176
▁hairy	-3177
▁missing	-3178
▁counting	-3179
▁ingredients	-3180
▁pup	-3181
▁advice	-3182
▁jacket	-3183
cu	-3184
▁mel	-3185
▁zip	-3186
▁humble	-3187
▁shiver	-3188
▁pale	-3189
▁doesn	-3190
▁forth	-3191
▁guard	-3192
▁destro	-3193
▁square	-3194
▁stranger	-3195
There	-3196
▁Toby	-3197
▁grand	-3198
▁flexible	-3199
▁hipp	-3200
▁pige	-3201
▁sudden	-3202
▁driving	-3203
▁playful	-3204
▁aunt	-3205
▁Tweetie	-3206
▁question	-3207
▁thinking	-3208
▁whispered	-3209
▁impressive	-3210
ilty	-3211
▁cards	-3212
▁jolly	-3213
▁opens	-3214
▁speed	-3215
▁collar	-3216
▁create	-3217
▁guilty	-3218
▁nicely	-3219
▁slides	-3220
▁carrying	-3221
cod	-3222
nown	-3223
▁cur	-3224
▁allowed	-3225
▁twirled	-3226
▁print	-3227
▁handle	-3228
▁hunter	-3229
▁sparkled	-3230
illa	-3231
▁brace	-3232
▁popular	-3233
▁sticker	-3234
host	-3235
▁rub	-3236
▁umb	-3237
ement	-3238
▁cush	-3239
▁umbrell	-3240
fa	-3241
ud	-3242
▁anx	-3243
▁env	-3244
▁tap	-3245
▁rubb	-3246
▁sink	-3247
▁tied	-3248
ations	-3249
▁base	-3250
▁disg	-3251
comfort	-3252
▁rubbed	-3253
cre	-3254
bled	-3255
▁carpet	-3256
▁friendship	-3257
tter	-3258
▁cooking	-3259
▁disgust	-3260
▁charming	-3261
▁uncomfort	-3262
▁persistent	-3263
▁uncomfortable	-3264
▁gira	-3265
▁holds	-3266
▁shocked	-3267
awn	-3268
ellig	-3269
▁perm	-3270
▁wing	-3271
▁ghost	-3272
▁metal	-3273
▁anxious	-3274
▁refused	-3275
▁dolphin	-3276
▁intellig	-3277
▁butterflies	-3278
▁dust	-3279
▁sett	-3280
▁crocod	-3281
▁gasped	-3282
▁scatter	-3283
▁unknown	-3284
▁eng	-3285
▁gum	-3286
arian	-3287
▁pants	-3288
▁patch	-3289
▁scoot	-3290
▁comput	-3291
▁patter	-3292
loo	-3293
aroo	-3294
ugged	-3295
▁neat	-3296
angaroo	-3297
▁spinning	-3298
They	-3299
▁ins	-3300
▁shel	-3301
▁nature	-3302
▁chasing	-3303
▁pattern	-3304
▁kangaroo	-3305
▁celebrate	-3306
▁led	-3307
▁moder	-3308
▁pasta	-3309
▁wheels	-3310
œLetâ	-3311
▁hippo	-3312
▁names	-3313
▁truth	-3314
▁hammer	-3315
▁ordinary	-3316
▁Ro	-3317
▁Snow	-3318
▁mask	-3319
▁surf	-3320
▁encou	-3321
oe	-3322
coa	-3323
▁Pe	-3324
▁torn	-3325
▁cocoa	-3326
▁impat	-3327
▁resist	-3328
œIt	-3329
▁phot	-3330
▁stat	-3331
▁goose	-3332
Ow	-3333
▁Pat	-3334
▁Here	-3335
▁acorn	-3336
Re	-3337
▁perform	-3338
eer	-3339
▁bent	-3340
▁pand	-3341
▁zipp	-3342
▁otter	-3343
▁growing	-3344
▁impatient	-3345
ffee	-3346
iches	-3347
▁math	-3348
▁skip	-3349
▁crazy	-3350
▁prize	-3351
▁modern	-3352
▁harmless	-3353
▁sleeping	-3354
▁snuggled	-3355
ray	-3356
▁oat	-3357
orant	-3358
œWhat	-3359
▁rece	-3360
aurant	-3361
▁Grace	-3362
▁crane	-3363
▁scale	-3364
▁shine	-3365
▁magnet	-3366
▁fireman	-3367
▁restaurant	-3368
He	-3369
▁Maria	-3370
▁split	-3371
▁trash	-3372
▁beauty	-3373
▁potato	-3374
▁attract	-3375
▁destroy	-3376
▁windows	-3377
▁shoe	-3378
▁reind	-3379
▁handed	-3380
▁placed	-3381
▁unpack	-3382
▁intelligent	-3383
▁Look	-3384
▁spoke	-3385
▁super	-3386
▁Millie	-3387
▁cricket	-3388
llip	-3389
▁disgusting	-3390
▁compassionate	-3391
See	-3392
cut	-3393
▁sofa	-3394
▁umbrella	-3395
▁Tr	-3396
▁tem	-3397
▁load	-3398
▁ahead	-3399
▁lollip	-3400
▁starts	-3401
noon	-3402
▁wheat	-3403
▁candle	-3404
▁drawer	-3405
▁Brownie	-3406
▁distant	-3407
▁afternoon	-3408
▁sandwiches	-3409
▁waff	-3410
▁yawn	-3411
▁clock	-3412
▁ignorant	-3413
Go	-3414
ips	-3415
ince	-3416
aches	-3417
▁chance	-3418
▁triang	-3419
▁bracelet	-3420
▁reindeer	-3421
ikes	-3422
▁dug	-3423
ophone	-3424
▁hedge	-3425
▁rules	-3426
▁pigeon	-3427
▁spring	-3428
▁country	-3429
aby	-3430
▁hook	-3431
▁trop	-3432
▁flour	-3433
▁shield	-3434
▁bin	-3435
▁reco	-3436
▁shut	-3437
▁purse	-3438
▁coffee	-3439
▁couldnâ	-3440
▁support	-3441
▁hung	-3442
▁cupboard	-3443
▁restless	-3444
▁ol	-3445
▁jug	-3446
▁cord	-3447
▁tire	-3448
▁harsh	-3449
▁order	-3450
▁gifted	-3451
▁trophy	-3452
▁mailbox	-3453
ict	-3454
fish	-3455
▁may	-3456
▁sym	-3457
▁jumps	-3458
lcano	-3459
▁cats	-3460
▁note	-3461
erable	-3462
▁sadly	-3463
▁shrimp	-3464
▁silver	-3465
▁miserable	-3466
af	-3467
ices	-3468
cycle	-3469
▁Will	-3470
▁film	-3471
▁mush	-3472
▁send	-3473
▁shadow	-3474
▁crocodile	-3475
▁pretending	-3476
gu	-3477
▁ax	-3478
gging	-3479
▁leop	-3480
▁Sophie	-3481
▁engine	-3482
▁itself	-3483
Yay	-3484
bol	-3485
ibb	-3486
osie	-3487
▁camp	-3488
▁hurry	-3489
▁melon	-3490
▁courage	-3491
▁further	-3492
▁practiced	-3493
▁muff	-3494
▁impro	-3495
▁object	-3496
▁symbol	-3497
▁anywhere	-3498
▁computer	-3499
uct	-3500
▁fu	-3501
▁bri	-3502
▁mill	-3503
▁vine	-3504
▁trick	-3505
▁creatures	-3506
gn	-3507
œYes	-3508
▁enth	-3509
▁goal	-3510
▁jeep	-3511
▁compl	-3512
▁Ru	-3513
aled	-3514
▁repe	-3515
▁towers	-3516
▁painter	-3517
▁rice	-3518
▁stack	-3519
▁Before	-3520
▁cooler	-3521
▁envious	-3522
▁reading	-3523
▁pony	-3524
▁rose	-3525
▁Buddy	-3526
▁Bunny	-3527
▁parade	-3528
▁wishes	-3529
▁station	-3530
az	-3531
und	-3532
▁cryst	-3533
▁exper	-3534
▁needle	-3535
▁cartoon	-3536
▁forgave	-3537
iron	-3538
stri	-3539
▁Are	-3540
▁axe	-3541
▁kay	-3542
œThat	-3543
▁enthus	-3544
▁stretched	-3545
▁treasures	-3546
▁helmet	-3547
▁reward	-3548
▁nowhere	-3549
▁attractive	-3550
ric	-3551
▁jet	-3552
▁Give	-3553
▁laser	-3554
▁older	-3555
▁second	-3556
▁letters	-3557
▁sweater	-3558
▁brighter	-3559
▁helpless	-3560
▁troubled	-3561
▁oy	-3562
▁Where	-3563
▁scold	-3564
▁pastry	-3565
▁message	-3566
▁football	-3567
▁ten	-3568
cream	-3569
▁drop	-3570
▁badly	-3571
▁panda	-3572
▁track	-3573
▁value	-3574
▁cushion	-3575
▁package	-3576
▁scooter	-3577
▁competitive	-3578
ser	-3579
▁Un	-3580
▁pilot	-3581
▁mushroom	-3582
ebra	-3583
▁por	-3584
▁salt	-3585
▁sock	-3586
▁alert	-3587
▁giggle	-3588
▁gloomy	-3589
▁recogn	-3590
▁tricks	-3591
▁fearful	-3592
▁pressed	-3593
▁theater	-3594
▁visited	-3595
htub	-3596
▁hall	-3597
▁human	-3598
▁spell	-3599
▁anyway	-3600
▁bandage	-3601
▁beep	-3602
▁deaf	-3603
▁tear	-3604
orable	-3605
▁admire	-3606
▁eraser	-3607
▁shouts	-3608
▁switch	-3609
▁bathtub	-3610
kelet	-3611
▁cows	-3612
▁pengu	-3613
▁zebra	-3614
▁barrel	-3615
▁volcano	-3616
▁microphone	-3617
ef	-3618
▁ener	-3619
orilla	-3620
▁thread	-3621
cope	-3622
▁swinging	-3623
hino	-3624
▁avoc	-3625
▁raven	-3626
▁roared	-3627
▁bounced	-3628
▁leopard	-3629
▁soldier	-3630
▁tray	-3631
stairs	-3632
▁Annie	-3633
▁Smith	-3634
▁statue	-3635
▁starting	-3636
ctop	-3637
▁hive	-3638
▁nuts	-3639
▁size	-3640
ctopus	-3641
iskers	-3642
▁holes	-3643
▁obser	-3644
▁modest	-3645
▁strugg	-3646
ci	-3647
ne	-3648
year	-3649
ebook	-3650
▁sent	-3651
▁peach	-3652
▁steps	-3653
keleton	-3654
▁riding	-3655
▁squash	-3656
▁adorable	-3657
▁Everything	-3658
▁Sh	-3659
ckey	-3660
▁hockey	-3661
▁octopus	-3662
▁notebook	-3663
▁lip	-3664
▁Bill	-3665
▁curt	-3666
▁chain	-3667
▁curtain	-3668
▁shaking	-3669
▁Whiskers	-3670
▁backpack	-3671
▁respectful	-3672
▁ants	-3673
▁five	-3674
▁quar	-3675
▁behave	-3676
▁wallet	-3677
▁gorilla	-3678
▁haircut	-3679
▁shopkeeper	-3680
ceros	-3681
▁Kate	-3682
strich	-3683
▁filthy	-3684
hinoceros	-3685
▁ur	-3686
ceed	-3687
▁boots	-3688
▁pulls	-3689
▁either	-3690
▁papers	-3691
▁stirred	-3692
▁tripped	-3693
Give	-3694
▁pad	-3695
▁Jerry	-3696
▁nobody	-3697
▁sunset	-3698
▁checked	-3699
▁explain	-3700
▁sandbox	-3701
If	-3702
arnt	-3703
ccol	-3704
▁mop	-3705
ccoli	-3706
▁sort	-3707
▁avail	-3708
▁learnt	-3709
▁decorate	-3710
erc	-3711
▁mug	-3712
▁pun	-3713
▁golf	-3714
▁meas	-3715
▁rescue	-3716
▁crystal	-3717
▁pushing	-3718
▁motorcycle	-3719
nna	-3720
▁art	-3721
▁vest	-3722
▁James	-3723
▁cooked	-3724
▁pebble	-3725
▁powder	-3726
▁sailor	-3727
▁lightning	-3728
▁somewhere	-3729
▁rhinoceros	-3730
ief	-3731
iest	-3732
▁Snowy	-3733
▁porch	-3734
▁short	-3735
▁stared	-3736
▁giraffe	-3737
▁rolling	-3738
▁clapping	-3739
▁vi	-3740
▁dess	-3741
▁jokes	-3742
▁skeleton	-3743
▁bet	-3744
▁incl	-3745
render	-3746
▁unlock	-3747
▁available	-3748
reci	-3749
▁comet	-3750
▁kayak	-3751
▁point	-3752
▁dishes	-3753
▁trains	-3754
▁succeed	-3755
▁organize	-3756
par	-3757
ucked	-3758
▁exerc	-3759
▁leash	-3760
▁quite	-3761
▁happier	-3762
enry	-3763
astic	-3764
ooped	-3765
▁hadn	-3766
▁paws	-3767
▁stom	-3768
▁laund	-3769
▁separ	-3770
▁barking	-3771
▁frowned	-3772
▁listening	-3773
ube	-3774
hood	-3775
▁tur	-3776
elery	-3777
▁muse	-3778
▁toil	-3779
▁appreci	-3780
▁colours	-3781
▁climbing	-3782
▁triangle	-3783
▁unh	-3784
ummer	-3785
▁case	-3786
▁peek	-3787
▁seal	-3788
▁zipper	-3789
▁dessert	-3790
▁laundry	-3791
▁weather	-3792
▁complete	-3793
night	-3794
▁Jess	-3795
▁cane	-3796
▁broccoli	-3797
▁reef	-3798
inking	-3799
▁Henry	-3800
▁slipp	-3801
ubby	-3802
▁iron	-3803
▁Charl	-3804
▁Rosie	-3805
▁museum	-3806
▁pushes	-3807
▁closely	-3808
▁monkeys	-3809
▁putting	-3810
▁lollipop	-3811
▁surrender	-3812
cast	-3813
▁brus	-3814
▁pipe	-3815
▁spir	-3816
▁yach	-3817
▁breat	-3818
▁lions	-3819
▁blowing	-3820
io	-3821
urb	-3822
come	-3823
▁ped	-3824
▁sle	-3825
▁speak	-3826
▁toilet	-3827
▁turkey	-3828
▁disturb	-3829
▁marched	-3830
Bye	-3831
ges	-3832
ron	-3833
aked	-3834
▁bicy	-3835
▁barks	-3836
▁finds	-3837
▁skill	-3838
▁lively	-3839
▁stuffed	-3840
▁drawings	-3841
Anna	-3842
heart	-3843
▁Bear	-3844
▁nail	-3845
▁rever	-3846
▁napkin	-3847
▁sandcast	-3848
▁ended	-3849
▁yacht	-3850
▁dancer	-3851
▁polish	-3852
▁costume	-3853
anic	-3854
▁ink	-3855
▁fort	-3856
▁softly	-3857
▁ostrich	-3858
olin	-3859
iling	-3860
▁mild	-3861
▁ribb	-3862
chanic	-3863
▁lands	-3864
▁raining	-3865
gs	-3866
▁Ab	-3867
▁lid	-3868
▁oil	-3869
vator	-3870
▁appl	-3871
▁club	-3872
▁tube	-3873
▁chubby	-3874
▁thanks	-3875
▁univer	-3876
play	-3877
▁Kat	-3878
▁inf	-3879
aulif	-3880
▁crow	-3881
ecause	-3882
▁piano	-3883
▁elevator	-3884
▁mechanic	-3885
▁basketball	-3886
▁belt	-3887
▁Lilly	-3888
▁mixer	-3889
▁strip	-3890
▁bubble	-3891
▁hoping	-3892
▁unhappy	-3893
ison	-3894
▁glove	-3895
▁caulif	-3896
▁spirit	-3897
▁airport	-3898
ites	-3899
▁hut	-3900
▁cups	-3901
▁wife	-3902
▁bikes	-3903
▁judge	-3904
▁press	-3905
▁insist	-3906
▁welcomed	-3907
▁pair	-3908
▁drops	-3909
▁frame	-3910
▁grabs	-3911
▁magaz	-3912
▁leaned	-3913
€“	-3914
stic	-3915
▁mama	-3916
▁resp	-3917
▁thief	-3918
▁grapes	-3919
▁quarrel	-3920
edy	-3921
mand	-3922
▁Ste	-3923
▁prov	-3924
▁repair	-3925
▁evening	-3926
▁baseball	-3927
▁Inst	-3928
▁buzz	-3929
iastic	-3930
▁screw	-3931
▁sneak	-3932
▁celery	-3933
▁factor	-3934
▁oyster	-3935
▁radish	-3936
▁imagine	-3937
▁apologized	-3938
▁enthusiastic	-3939
▁Bun	-3940
▁men	-3941
▁rag	-3942
▁tub	-3943
▁luck	-3944
▁given	-3945
▁breaks	-3946
▁Charlie	-3947
▁counter	-3948
▁display	-3949
▁shelter	-3950
▁cherries	-3951
▁mule	-3952
▁veil	-3953
▁didnâ	-3954
▁marry	-3955
▁zoomed	-3956
▁factory	-3957
aff	-3958
azz	-3959
zzy	-3960
▁fisher	-3961
▁bicycle	-3962
▁Baby	-3963
▁lend	-3964
▁shade	-3965
▁energy	-3966
▁feelings	-3967
▁bul	-3968
▁poem	-3969
▁frogs	-3970
▁hopes	-3971
▁cauliflower	-3972
▁rod	-3973
imney	-3974
▁prun	-3975
▁bears	-3976
▁chimney	-3977
▁Pap	-3978
iture	-3979
▁furn	-3980
▁pole	-3981
▁weep	-3982
▁stretch	-3983
▁furniture	-3984
▁See	-3985
▁gym	-3986
▁bulb	-3987
▁maze	-3988
▁paid	-3989
▁raft	-3990
▁Harry	-3991
▁player	-3992
any	-3993
ense	-3994
icer	-3995
aused	-3996
chair	-3997
▁staff	-3998
▁shakes	-3999
rod	-4000
ccer	-4001
▁dive	-4002
▁cheek	-4003
▁kitty	-4004
▁lives	-4005
▁introd	-4006
▁soccer	-4007
▁slippery	-4008
▁attention	-4009
▁neighbour	-4010
▁photo	-4011
▁sheet	-4012
▁trail	-4013
▁smells	-4014
▁violin	-4015
▁falling	-4016
▁perfectly	-4017
gen	-4018
▁bur	-4019
▁knot	-4020
▁pine	-4021
▁quit	-4022
▁chirp	-4023
▁bananas	-4024
▁married	-4025
angu	-4026
▁har	-4027
▁lie	-4028
▁crib	-4029
▁page	-4030
▁langu	-4031
▁summer	-4032
▁firework	-4033
▁sweetheart	-4034
▁Lee	-4035
▁lime	-4036
▁reve	-4037
oscope	-4038
▁onion	-4039
▁golden	-4040
▁sprink	-4041
▁belongs	-4042
▁cabinet	-4043
▁armchair	-4044
▁cardboard	-4045
ait	-4046
low	-4047
▁sir	-4048
Timmy	-4049
aring	-4050
ories	-4051
▁True	-4052
▁shouldn	-4053
Dad	-4054
▁gro	-4055
▁wool	-4056
▁Would	-4057
▁trave	-4058
▁sticky	-4059
▁puddles	-4060
TMm	-4061
men	-4062
▁tuna	-4063
▁fields	-4064
▁chickens	-4065
bul	-4066
▁Papa	-4067
▁Instead	-4068
▁scolded	-4069
enny	-4070
œYou	-4071
eterin	-4072
▁swung	-4073
eterinarian	-4074
..	-4075
▁Mag	-4076
▁soil	-4077
▁Danny	-4078
▁therm	-4079
▁burned	-4080
▁avocado	-4081
▁straight	-4082
hero	-4083
izes	-4084
▁rot	-4085
reeze	-4086
▁herb	-4087
ometer	-4088
▁disag	-4089
▁flies	-4090
▁pirates	-4091
▁prevent	-4092
▁fisherman	-4093
▁veterinarian	-4094
aud	-4095
ween	-4096
▁Ruby	-4097
▁journ	-4098
▁novel	-4099
▁offer	-4100
▁petals	-4101
▁shovel	-4102
▁between	-4103
▁created	-4104
▁superhero	-4105
▁imagination	-4106
▁glowing	-4107
▁meeting	-4108
▁classroom	-4109
hic	-4110
▁Tony	-4111
▁opera	-4112
▁twink	-4113
▁vehic	-4114
▁kingdom	-4115
▁plastic	-4116
▁memories	-4117
▁mistakes	-4118
▁thermometer	-4119
▁ble	-4120
▁pal	-4121
anges	-4122
▁cell	-4123
unately	-4124
▁seeing	-4125
▁throws	-4126
▁fishing	-4127
▁shoulder	-4128
lass	-4129
▁meat	-4130
▁slept	-4131
▁ceiling	-4132
▁ignored	-4133
▁passport	-4134
▁jellyfish	-4135
ues	-4136
▁tax	-4137
▁radio	-4138
▁forgotten	-4139
▁celebrated	-4140
ngth	-4141
▁doors	-4142
▁skirt	-4143
▁teleph	-4144
▁journal	-4145
▁oak	-4146
▁heads	-4147
▁makeup	-4148
▁accepted	-4149
▁presents	-4150
▁telephone	-4151
▁Co	-4152
Your	-4153
▁donâ	-4154
▁stro	-4155
▁vend	-4156
▁allig	-4157
▁flame	-4158
▁pinch	-4159
▁infant	-4160
▁strength	-4161
▁throwing	-4162
gie	-4163
ents	-4164
▁fle	-4165
▁vet	-4166
chie	-4167
▁file	-4168
▁loop	-4169
▁taxi	-4170
▁ambul	-4171
▁swamp	-4172
▁grocer	-4173
▁points	-4174
▁applaud	-4175
urch	-4176
drobe	-4177
vision	-4178
▁alive	-4179
▁baking	-4180
▁planet	-4181
▁rubber	-4182
▁writing	-4183
▁shouting	-4184
▁wardrobe	-4185
te	-4186
reek	-4187
achel	-4188
▁Miss	-4189
▁Tina	-4190
▁cube	-4191
▁seas	-4192
▁sung	-4193
▁creek	-4194
▁discu	-4195
▁steam	-4196
▁worth	-4197
▁Rachel	-4198
▁palace	-4199
▁winter	-4200
▁lemonade	-4201
▁magazine	-4202
bbie	-4203
ores	-4204
▁itch	-4205
▁wags	-4206
▁diary	-4207
Because	-4208
▁shower	-4209
▁Buzz	-4210
▁Steve	-4211
▁attach	-4212
▁folder	-4213
▁hanging	-4214
▁squirrels	-4215
▁strawberry	-4216
▁television	-4217
Max	-4218
bor	-4219
ggy	-4220
ium	-4221
▁aut	-4222
▁fog	-4223
▁boot	-4224
pected	-4225
▁quack	-4226
▁stable	-4227
nam	-4228
▁inse	-4229
ossible	-4230
▁greedy	-4231
▁parent	-4232
▁flapped	-4233
▁prepare	-4234
▁knob	-4235
▁Clara	-4236
▁chalk	-4237
▁medal	-4238
▁helper	-4239
▁follows	-4240
▁mystery	-4241
▁sailing	-4242
▁sprayed	-4243
▁surround	-4244
ito	-4245
icop	-4246
▁pra	-4247
▁vac	-4248
ossed	-4249
▁Help	-4250
▁argue	-4251
▁moves	-4252
▁ornam	-4253
▁serve	-4254
icopter	-4255
▁alligator	-4256
▁ambulance	-4257
▁disappear	-4258
▁helicopter	-4259
tress	-4260
▁grin	-4261
▁First	-4262
▁below	-4263
▁signs	-4264
▁harbor	-4265
▁mattress	-4266
ab	-4267
una	-4268
▁stud	-4269
lasses	-4270
▁freez	-4271
▁waving	-4272
▁However	-4273
▁dressed	-4274
▁eagerly	-4275
▁sunglasses	-4276
ups	-4277
œItâ	-4278
▁known	-4279
▁minute	-4280
▁vendor	-4281
lier	-4282
ipping	-4283
▁firef	-4284
▁cherry	-4285
▁popped	-4286
▁microscope	-4287
imi	-4288
case	-4289
igail	-4290
ising	-4291
▁requ	-4292
▁wine	-4293
▁apart	-4294
▁grill	-4295
▁rooms	-4296
▁weigh	-4297
▁fallen	-4298
▁letting	-4299
▁fauc	-4300
▁pear	-4301
▁berry	-4302
▁refre	-4303
▁complain	-4304
▁language	-4305
▁God	-4306
estig	-4307
▁Mimi	-4308
▁lawn	-4309
▁wipe	-4310
elcome	-4311
▁easily	-4312
▁investig	-4313
▁blackboard	-4314
mm	-4315
Did	-4316
inky	-4317
▁Each	-4318
▁breeze	-4319
▁faucet	-4320
▁headed	-4321
▁Abigail	-4322
▁quietly	-4323
amb	-4324
iday	-4325
omob	-4326
tain	-4327
▁cob	-4328
▁cared	-4329
▁since	-4330
▁thumb	-4331
▁taller	-4332
▁crossed	-4333
▁entered	-4334
▁whisper	-4335
osqu	-4336
▁leak	-4337
▁sque	-4338
▁poked	-4339
osquito	-4340
▁Maggie	-4341
▁chairs	-4342
▁kisses	-4343
▁automob	-4344
▁earlier	-4345
▁happens	-4346
▁relaxed	-4347
▁reverse	-4348
▁ig	-4349
▁pur	-4350
adium	-4351
▁Luck	-4352
▁suff	-4353
▁igloo	-4354
▁regret	-4355
▁improve	-4356
▁stadium	-4357
▁crawling	-4358
▁exercise	-4359
▁musician	-4360
▁Iâ	-4361
asis	-4362
▁alarm	-4363
▁apron	-4364
▁crash	-4365
▁delay	-4366
▁waste	-4367
▁caring	-4368
▁church	-4369
▁fought	-4370
▁waffle	-4371
▁dresses	-4372
▁request	-4373
▁sniffed	-4374
▁vacation	-4375
chor	-4376
▁wigg	-4377
▁Katie	-4378
▁balan	-4379
▁cliff	-4380
▁olive	-4381
▁lumber	-4382
▁fastest	-4383
▁separate	-4384
▁investigate	-4385
web	-4386
yer	-4387
▁hol	-4388
▁poke	-4389
▁airpl	-4390
▁sizes	-4391
▁insect	-4392
▁holiday	-4393
'.	-4394
▁claw	-4395
▁saus	-4396
▁Milly	-4397
▁appro	-4398
▁oasis	-4399
▁vroom	-4400
▁skills	-4401
▁puzzles	-4402
▁sparkle	-4403
▁surprises	-4404
ero	-4405
▁Ted	-4406
orses	-4407
▁cable	-4408
▁shrink	-4409
▁yogurt	-4410
▁mosquito	-4411
opl	-4412
▁Jul	-4413
▁May	-4414
▁aer	-4415
▁dear	-4416
▁spots	-4417
▁yield	-4418
▁aeropl	-4419
▁cobweb	-4420
▁lotion	-4421
▁Luckily	-4422
▁reaches	-4423
▁bouncing	-4424
▁amazement	-4425
▁scattered	-4426
fortunately	-4427
▁destination	-4428
ety	-4429
ler	-4430
uch	-4431
medi	-4432
▁isn	-4433
▁Spike	-4434
▁incre	-4435
▁horses	-4436
▁lawyer	-4437
▁supply	-4438
▁tucked	-4439
mediately	-4440
▁splashing	-4441
was	-4442
Wait	-4443
▁Who	-4444
sters	-4445
▁mint	-4446
▁rake	-4447
washer	-4448
▁float	-4449
▁safety	-4450
▁oranges	-4451
▁trusted	-4452
▁dishwasher	-4453
omm	-4454
oral	-4455
▁unif	-4456
▁hearts	-4457
▁yawned	-4458
▁flutter	-4459
▁mailman	-4460
▁vehicle	-4461
▁collected	-4462
aces	-4463
ives	-4464
▁itâ	-4465
▁pit	-4466
right	-4467
ommend	-4468
▁Freddy	-4469
▁anchor	-4470
▁floated	-4471
▁squeeze	-4472
▁shooting	-4473
▁shrugged	-4474
▁blueberries	-4475
▁Sad	-4476
▁bother	-4477
▁laught	-4478
▁muffin	-4479
▁saving	-4480
▁castles	-4481
▁rabbits	-4482
▁spending	-4483
▁recommend	-4484
▁automobile	-4485
nger	-4486
▁tug	-4487
▁tut	-4488
ction	-4489
icing	-4490
inked	-4491
▁poppy	-4492
▁choice	-4493
▁demand	-4494
▁examine	-4495
€.	-4496
omes	-4497
place	-4498
raged	-4499
▁conf	-4500
▁quiz	-4501
▁achie	-4502
▁licks	-4503
▁spade	-4504
▁worms	-4505
▁ribbon	-4506
▁candles	-4507
▁hurting	-4508
▁sparkling	-4509
▁experience	-4510
▁King	-4511
ucture	-4512
▁kneel	-4513
▁uniform	-4514
▁bookcase	-4515
▁laughter	-4516
▁squeezed	-4517
▁following	-4518
▁structure	-4519
oh	-4520
▁raz	-4521
▁agree	-4522
▁eaten	-4523
▁bumped	-4524
▁buried	-4525
▁remove	-4526
▁penguin	-4527
▁praised	-4528
ideo	-4529
▁bury	-4530
▁sigh	-4531
▁Penny	-4532
▁beans	-4533
▁video	-4534
▁includ	-4535
▁plates	-4536
▁mention	-4537
cakes	-4538
▁flea	-4539
▁fuel	-4540
▁rise	-4541
▁snap	-4542
▁tong	-4543
Thanks	-4544
▁chess	-4545
▁instr	-4546
▁miner	-4547
▁plays	-4548
▁sings	-4549
▁spear	-4550
▁Or	-4551
nies	-4552
▁simp	-4553
▁hills	-4554
▁blinked	-4555
▁scooped	-4556
▁tornado	-4557
Sam	-4558
Yuck	-4559
ival	-4560
▁Its	-4561
▁equ	-4562
▁razor	-4563
▁ignore	-4564
▁battery	-4565
▁captain	-4566
▁ringing	-4567
▁settled	-4568
▁snapped	-4569
▁washing	-4570
▁destroyed	-4571
▁understanding	-4572
Is	-4573
▁mall	-4574
iction	-4575
▁dried	-4576
▁ideas	-4577
▁growled	-4578
▁keeping	-4579
▁blankets	-4580
▁appreciate	-4581
▁palm	-4582
▁toes	-4583
▁admir	-4584
ictionary	-4585
ib	-4586
ple	-4587
▁fest	-4588
▁sits	-4589
▁enter	-4590
▁manage	-4591
▁watches	-4592
▁wandered	-4593
▁aeroplane	-4594
▁fireplace	-4595
▁sandcastle	-4596
▁Is	-4597
ived	-4598
omeday	-4599
▁bleed	-4600
▁label	-4601
▁myself	-4602
▁Joy	-4603
amber	-4604
▁port	-4605
▁coats	-4606
▁melted	-4607
▁bravely	-4608
▁Everyday	-4609
▁dictionary	-4610
nce	-4611
alley	-4612
▁junk	-4613
▁oats	-4614
▁tide	-4615
▁yoga	-4616
▁yucky	-4617
▁freezer	-4618
▁jewelry	-4619
▁setting	-4620
▁strawberries	-4621
And	-4622
ring	-4623
▁Chl	-4624
▁root	-4625
▁tore	-4626
uggage	-4627
▁claws	-4628
▁score	-4629
▁tutor	-4630
▁sneeze	-4631
▁stomach	-4632
▁glo	-4633
▁gifts	-4634
▁pride	-4635
▁trade	-4636
▁climbs	-4637
▁luggage	-4638
bey	-4639
▁hits	-4640
▁Chloe	-4641
▁planes	-4642
▁moments	-4643
▁scratch	-4644
▁someday	-4645
▁airplane	-4646
▁floating	-4647
▁vanished	-4648
▁Me	-4649
Sara	-4650
▁prop	-4651
▁appear	-4652
▁beamed	-4653
▁sub	-4654
antly	-4655
umble	-4656
▁beef	-4657
▁repeat	-4658
▁believed	-4659
▁struggling	-4660
▁ga	-4661
rise	-4662
▁Beth	-4663
▁weap	-4664
▁temple	-4665
▁burning	-4666
▁blueberry	-4667
ah	-4668
ls	-4669
sit	-4670
vet	-4671
osed	-4672
▁dire	-4673
▁item	-4674
▁drain	-4675
▁weeks	-4676
emember	-4677
▁chores	-4678
▁tongue	-4679
▁valley	-4680
▁jogging	-4681
▁elephants	-4682
▁whistling	-4683
▁Liz	-4684
▁Coco	-4685
▁gear	-4686
▁shot	-4687
ishing	-4688
ission	-4689
▁calls	-4690
▁pages	-4691
▁sport	-4692
▁nation	-4693
▁remain	-4694
▁cuddled	-4695
▁festival	-4696
▁permission	-4697
▁immediately	-4698
▁Unfortunately	-4699
▁V	-4700
lend	-4701
▁hers	-4702
▁lily	-4703
▁bathe	-4704
▁raise	-4705
▁ranch	-4706
▁crunch	-4707
▁poison	-4708
▁chamber	-4709
▁sunrise	-4710
▁teaching	-4711
asc	-4712
iers	-4713
house	-4714
▁homes	-4715
▁steak	-4716
▁breathe	-4717
▁marbles	-4718
▁provide	-4719
▁pulling	-4720
▁patiently	-4721
aped	-4722
seek	-4723
uture	-4724
▁Have	-4725
▁Remy	-4726
lendar	-4727
▁hesit	-4728
▁peanuts	-4729
▁calendar	-4730
▁Anne	-4731
▁Good	-4732
▁jazz	-4733
▁spit	-4734
▁People	-4735
▁buckle	-4736
▁future	-4737
▁pastel	-4738
▁paused	-4739
▁stitch	-4740
▁ticket	-4741
▁warmth	-4742
▁collecting	-4743
TMre	-4744
sing	-4745
allow	-4746
ipment	-4747
▁hotel	-4748
▁prayed	-4749
▁thrilled	-4750
▁approached	-4751
fume	-4752
▁gust	-4753
▁shed	-4754
▁daisy	-4755
▁tease	-4756
▁alright	-4757
▁warning	-4758
▁chirping	-4759
▁equipment	-4760
▁encouraged	-4761
ging	-4762
ampoo	-4763
▁coal	-4764
▁panic	-4765
▁skull	-4766
▁socks	-4767
▁begged	-4768
▁punish	-4769
▁answers	-4770
▁earthqu	-4771
▁missile	-4772
▁perfume	-4773
▁shampoo	-4774
▁insisted	-4775
▁skipping	-4776
osity	-4777
▁lick	-4778
▁none	-4779
▁cakes	-4780
▁restore	-4781
▁twisted	-4782
▁soldiers	-4783
▁guy	-4784
xture	-4785
mother	-4786
▁doggy	-4787
▁hardly	-4788
▁jewels	-4789
▁meowed	-4790
▁solved	-4791
▁observe	-4792
▁respons	-4793
▁received	-4794
Qu	-4795
▁lic	-4796
▁sew	-4797
▁lect	-4798
▁sore	-4799
▁event	-4800
▁unite	-4801
Welcome	-4802
▁bricks	-4803
▁lecture	-4804
▁receive	-4805
▁revealed	-4806
fy	-4807
anna	-4808
▁Nut	-4809
These	-4810
istol	-4811
shing	-4812
▁bites	-4813
▁deeper	-4814
▁pistol	-4815
▁ordered	-4816
act	-4817
Ouch	-4818
▁sty	-4819
▁bang	-4820
▁digg	-4821
▁fasc	-4822
▁comfy	-4823
▁parts	-4824
▁copper	-4825
▁matches	-4826
▁patterns	-4827
▁refreshed	-4828
pap	-4829
▁emer	-4830
▁works	-4831
▁invite	-4832
▁digging	-4833
▁remained	-4834
▁recognized	-4835
ases	-4836
▁Car	-4837
▁row	-4838
▁sip	-4839
ities	-4840
▁chir	-4841
▁jail	-4842
▁warn	-4843
▁blood	-4844
▁drinking	-4845
▁supposed	-4846
▁upstairs	-4847
▁Not	-4848
▁hate	-4849
œThatâ	-4850
▁racing	-4851
▁chirped	-4852
▁discuss	-4853
▁grinned	-4854
▁mustache	-4855
▁discovery	-4856
cc	-4857
sity	-4858
▁Mat	-4859
▁ours	-4860
▁rush	-4861
▁urge	-4862
▁circus	-4863
▁fascin	-4864
▁simple	-4865
▁bookshe	-4866
▁measured	-4867
▁wherever	-4868
",	-4869
▁mass	-4870
▁girls	-4871
▁grape	-4872
▁spill	-4873
▁license	-4874
▁planted	-4875
▁decision	-4876
▁sunlight	-4877
▁Ol	-4878
bers	-4879
lvet	-4880
▁beg	-4881
▁eff	-4882
riger	-4883
▁pigs	-4884
▁Poppy	-4885
▁jogged	-4886
▁suffer	-4887
▁velvet	-4888
▁Bubbles	-4889
▁buzzing	-4890
▁crashed	-4891
▁replace	-4892
rigerator	-4893
▁apologize	-4894
▁earthquake	-4895
▁refrigerator	-4896
▁Fo	-4897
▁Chr	-4898
▁bak	-4899
allen	-4900
▁obey	-4901
▁Chirp	-4902
▁Nutty	-4903
▁glowed	-4904
▁writes	-4905
▁actually	-4906
▁clearing	-4907
!",	-4908
Mmm	-4909
eed	-4910
œNo	-4911
oved	-4912
▁Jos	-4913
▁heat	-4914
▁Frank	-4915
▁easier	-4916
▁raised	-4917
▁weapon	-4918
▁newspap	-4919
▁selling	-4920
▁bringing	-4921
▁difference	-4922
▁university	-4923
tory	-4924
▁awe	-4925
▁bill	-4926
▁invit	-4927
▁rested	-4928
▁settle	-4929
▁challen	-4930
▁history	-4931
▁bathrobe	-4932
▁cartoons	-4933
▁marching	-4934
▁bookshelf	-4935
rs	-4936
▁toe	-4937
htray	-4938
oming	-4939
▁Suzy	-4940
▁gain	-4941
▁laid	-4942
▁lets	-4943
▁worse	-4944
▁ashtray	-4945
▁turning	-4946
▁continue	-4947
▁prepared	-4948
▁sparkles	-4949
▁decorations	-4950
enty	-4951
kins	-4952
▁bes	-4953
▁fed	-4954
▁scur	-4955
▁whip	-4956
▁flood	-4957
▁remem	-4958
▁spoons	-4959
▁strang	-4960
▁company	-4961
▁firefight	-4962
ari	-4963
TMll	-4964
▁Cat	-4965
▁dare	-4966
▁menu	-4967
▁slip	-4968
▁Lucky	-4969
▁brick	-4970
▁Floppy	-4971
▁watered	-4972
▁agreement	-4973
▁remembers	-4974
▁Ad	-4975
▁Jam	-4976
bbled	-4977
▁Luna	-4978
▁hated	-4979
▁tremb	-4980
▁problems	-4981
ude	-4982
▁By	-4983
llie	-4984
▁Mad	-4985
izard	-4986
▁fash	-4987
▁famil	-4988
▁chewed	-4989
▁soared	-4990
▁crunchy	-4991
▁admiring	-4992
▁possible	-4993
▁mitten	-4994
▁disagre	-4995
▁wanting	-4996
▁attached	-4997
▁examined	-4998
▁tomatoes	-4999
fied	-5000
indy	-5001
walk	-5002
▁Gre	-5003
Would	-5004
▁Moral	-5005
▁weren	-5006
looking	-5007
▁beside	-5008
▁monsters	-5009
▁sprinkles	-5010
œIâ	-5011
▁Rob	-5012
▁tip	-5013
▁pupil	-5014
▁slice	-5015
▁Chirpy	-5016
▁curled	-5017
▁fixing	-5018
▁villag	-5019
▁strangers	-5020
▁practicing	-5021
▁neighborhood	-5022
ha	-5023
▁An	-5024
▁cub	-5025
▁flap	-5026
▁grey	-5027
▁oper	-5028
▁rust	-5029
Really	-5030
▁Hoppy	-5031
▁brain	-5032
▁effort	-5033
▁mouths	-5034
▁tracks	-5035
▁grocery	-5036
▁trapped	-5037
▁newspaper	-5038
▁surrounded	-5039
anny	-5040
cles	-5041
hest	-5042
▁cal	-5043
▁peel	-5044
▁wond	-5045
▁gloves	-5046
▁weight	-5047
▁contain	-5048
▁cutting	-5049
▁onwards	-5050
etsy	-5051
▁bun	-5052
▁wre	-5053
▁Josh	-5054
▁flav	-5055
▁Betsy	-5056
▁Tilly	-5057
▁freeze	-5058
▁hanger	-5059
xy	-5060
ays	-5061
nie	-5062
ora	-5063
▁Sund	-5064
▁guns	-5065
▁model	-5066
▁rides	-5067
▁seats	-5068
▁waist	-5069
▁comple	-5070
▁during	-5071
▁safari	-5072
▁spaces	-5073
▁subway	-5074
▁escaped	-5075
▁perched	-5076
▁pinched	-5077
▁sidewalk	-5078
▁villagers	-5079
▁collection	-5080
▁rhy	-5081
▁bowed	-5082
▁argued	-5083
▁paints	-5084
▁rained	-5085
▁talent	-5086
▁wisdom	-5087
▁sausage	-5088
▁costumes	-5089
▁reminder	-5090
▁buildings	-5091
▁downstairs	-5092
▁3-	-5093
▁Am	-5094
aded	-5095
▁Jenna	-5096
▁waits	-5097
▁drinks	-5098
▁fashion	-5099
▁introduc	-5100
▁whistled	-5101
uing	-5102
▁twigs	-5103
▁gotten	-5104
▁memory	-5105
▁mister	-5106
▁permit	-5107
▁wizard	-5108
▁zipped	-5109
▁firemen	-5110
▁sliding	-5111
▁visiting	-5112
▁accidents	-5113
Sp	-5114
▁x	-5115
thm	-5116
zag	-5117
▁six	-5118
▁wid	-5119
neath	-5120
▁zero	-5121
▁muddy	-5122
▁pitch	-5123
▁price	-5124
▁steel	-5125
▁peered	-5126
▁petted	-5127
▁mineral	-5128
▁bleeding	-5129
▁pancakes	-5130
▁dinosaurs	-5131
Sh	-5132
▁Tiny	-5133
▁Sadly	-5134
▁bones	-5135
▁eagle	-5136
▁pears	-5137
▁anytime	-5138
▁bunnies	-5139
▁weighed	-5140
▁measuring	-5141
▁mountains	-5142
Ok	-5143
Yum	-5144
atch	-5145
ided	-5146
isten	-5147
▁Adam	-5148
▁beds	-5149
œThank	-5150
▁Cindy	-5151
▁pearl	-5152
▁sting	-5153
▁folded	-5154
▁hurric	-5155
▁neighbors	-5156
Ha	-5157
avi	-5158
▁Zoe	-5159
▁area	-5160
▁brid	-5161
▁chef	-5162
▁lamb	-5163
▁navy	-5164
▁padd	-5165
▁prune	-5166
▁voices	-5167
▁Someone	-5168
▁brushed	-5169
▁shopping	-5170
▁encourage	-5171
▁scratched	-5172
▁grandmother	-5173
asp	-5174
▁Sure	-5175
▁meow	-5176
▁pets	-5177
▁pedal	-5178
▁swims	-5179
▁brings	-5180
▁bottles	-5181
▁decides	-5182
▁guessed	-5183
▁massage	-5184
▁pillows	-5185
▁wonders	-5186
!'	-5187
▁Fro	-5188
▁Out	-5189
riage	-5190
▁lung	-5191
▁leather	-5192
▁secrets	-5193
▁snowball	-5194
▁comforted	-5195
▁hurricane	-5196
▁invitation	-5197
Not	-5198
ica	-5199
son	-5200
cage	-5201
ides	-5202
mare	-5203
joyed	-5204
▁Letâ	-5205
▁rang	-5206
terday	-5207
▁Sunny	-5208
▁These	-5209
▁Jessie	-5210
▁cuddle	-5211
▁ripped	-5212
▁birdcage	-5213
▁catching	-5214
▁happiest	-5215
▁ornament	-5216
▁disagreed	-5217
▁overjoyed	-5218
▁fascinated	-5219
len	-5220
▁Pr	-5221
Will	-5222
Ready	-5223
xygen	-5224
▁scoop	-5225
▁stole	-5226
▁style	-5227
▁rhythm	-5228
▁struck	-5229
▁markers	-5230
▁waffles	-5231
▁zooming	-5232
▁instruct	-5233
▁operation	-5234
▁underground	-5235
do	-5236
She	-5237
▁For	-5238
▁Jan	-5239
cious	-5240
igzag	-5241
tiest	-5242
▁pupp	-5243
▁Jamie	-5244
▁Ollie	-5245
▁activ	-5246
▁brand	-5247
▁snail	-5248
▁kindly	-5249
▁bridges	-5250
▁sneezed	-5251
▁nightmare	-5252
▁prettiest	-5253
▁recognize	-5254
Or	-5255
pe	-5256
▁Ra	-5257
▁pos	-5258
laire	-5259
▁rail	-5260
▁rele	-5261
aspoon	-5262
▁cones	-5263
▁drift	-5264
▁exact	-5265
▁satis	-5266
▁vowed	-5267
▁Sunday	-5268
▁blouse	-5269
▁tastes	-5270
▁wooden	-5271
▁doctors	-5272
▁hurried	-5273
▁travell	-5274
▁everyday	-5275
▁teaspoon	-5276
▁disturbed	-5277
▁succeeded	-5278
oed	-5279
mble	-5280
▁Big	-5281
▁bare	-5282
▁piles	-5283
▁contro	-5284
▁tugged	-5285
▁Sharing	-5286
▁studied	-5287
▁Something	-5288
▁billboard	-5289
etch	-5290
gers	-5291
▁bye	-5292
▁los	-5293
aster	-5294
œLook	-5295
▁lips	-5296
▁tune	-5297
▁crept	-5298
▁image	-5299
▁items	-5300
▁keeps	-5301
▁Claire	-5302
▁acorns	-5303
▁oxygen	-5304
▁muffins	-5305
▁struggled	-5306
imy	-5307
uke	-5308
anta	-5309
œDon	-5310
▁caut	-5311
▁ladyb	-5312
▁lines	-5313
▁perfor	-5314
▁served	-5315
▁bloomed	-5316
▁planned	-5317
▁tremble	-5318
▁included	-5319
▁spaceship	-5320
▁underneath	-5321
avid	-5322
▁David	-5323
▁Julie	-5324
▁Lizzy	-5325
▁begin	-5326
▁suitc	-5327
▁loving	-5328
▁parked	-5329
▁officer	-5330
▁screams	-5331
▁soaring	-5332
▁tickets	-5333
▁mentioned	-5334
▁responsible	-5335
œWe	-5336
ding	-5337
ffic	-5338
▁Itâ	-5339
▁Yes	-5340
▁Slow	-5341
▁beat	-5342
▁Uncle	-5343
▁beard	-5344
▁keeper	-5345
▁landsc	-5346
▁sorting	-5347
▁traffic	-5348
▁wagging	-5349
▁creation	-5350
▁completed	-5351
▁neighbourhood	-5352
To	-5353
▁Hop	-5354
▁eats	-5355
▁honk	-5356
▁Santa	-5357
▁eight	-5358
▁olives	-5359
▁sights	-5360
▁tonight	-5361
▁potatoes	-5362
▁shivered	-5363
▁Jon	-5364
▁bend	-5365
▁frost	-5366
▁gained	-5367
▁emergen	-5368
▁scurried	-5369
▁curiosity	-5370
▁introduced	-5371
▁instructions	-5372
izing	-5373
▁Nina	-5374
▁died	-5375
▁vent	-5376
Remember	-5377
▁universe	-5378
▁decorated	-5379
▁paintings	-5380
.'	-5381
▁ago	-5382
▁accom	-5383
▁nicer	-5384
▁steep	-5385
▁movies	-5386
▁prunes	-5387
▁exactly	-5388
▁realize	-5389
▁shadows	-5390
▁machines	-5391
▁precious	-5392
▁whatever	-5393
▁competition	-5394
▁Gr	-5395
▁Je	-5396
▁si	-5397
▁ann	-5398
▁une	-5399
▁bene	-5400
▁draws	-5401
▁guest	-5402
▁solut	-5403
▁rocked	-5404
uctantly	-5405
▁landscape	-5406
▁protected	-5407
ux	-5408
uxu	-5409
zen	-5410
▁Pip	-5411
▁beha	-5412
▁owned	-5413
▁wreck	-5414
▁Slowly	-5415
▁powers	-5416
▁beneath	-5417
▁printer	-5418
▁sadness	-5419
▁slapped	-5420
▁frosting	-5421
▁properly	-5422
▁introduce	-5423
€”	-5424
bert	-5425
bies	-5426
▁bank	-5427
▁inch	-5428
▁lemons	-5429
▁contest	-5430
▁pouring	-5431
▁rubbing	-5432
▁yelling	-5433
▁penguins	-5434
▁released	-5435
▁stealing	-5436
▁librarian	-5437
▁shoulders	-5438
Ye	-5439
ales	-5440
iggy	-5441
▁web	-5442
▁keys	-5443
▁luxu	-5444
▁ruin	-5445
▁knelt	-5446
▁urged	-5447
▁babies	-5448
▁mixing	-5449
▁silence	-5450
▁sisters	-5451
▁twirling	-5452
▁gathering	-5453
fit	-5454
hins	-5455
▁Bir	-5456
ashed	-5457
▁Nick	-5458
▁Dolly	-5459
▁purred	-5460
▁control	-5461
▁struggle	-5462
omas	-5463
▁forgi	-5464
▁barely	-5465
▁frozen	-5466
▁sorted	-5467
▁accompl	-5468
▁crackers	-5469
▁unlocked	-5470
▁fireworks	-5471
▁Afterwards	-5472
▁reluctantly	-5473
rr	-5474
ishes	-5475
▁exit	-5476
▁mice	-5477
▁soak	-5478
▁budge	-5479
▁crumb	-5480
▁outdo	-5481
▁shock	-5482
▁sides	-5483
▁theirs	-5484
▁dragged	-5485
▁muscles	-5486
▁spiders	-5487
▁stripes	-5488
▁punished	-5489
▁challenge	-5490
▁1	-5491
iar	-5492
int	-5493
œCan	-5494
▁Nan	-5495
▁dam	-5496
▁loose	-5497
▁Thomas	-5498
▁bouncy	-5499
▁outfit	-5500
▁achieve	-5501
▁glitter	-5502
▁pastels	-5503
▁dolphins	-5504
▁repeated	-5505
Ex	-5506
One	-5507
zing	-5508
agull	-5509
ppers	-5510
thank	-5511
▁opin	-5512
though	-5513
▁roads	-5514
▁expect	-5515
▁ranger	-5516
▁waiter	-5517
▁figured	-5518
▁pockets	-5519
▁printed	-5520
▁roaring	-5521
▁winning	-5522
▁breaking	-5523
▁expected	-5524
▁emergency	-5525
▁Qu	-5526
roat	-5527
▁Did	-5528
bbing	-5529
rance	-5530
▁Emmy	-5531
▁Stop	-5532
▁lied	-5533
uesday	-5534
▁chases	-5535
▁throat	-5536
▁zigzag	-5537
▁brushes	-5538
▁buckets	-5539
▁mission	-5540
▁becoming	-5541
▁policeman	-5542
ien	-5543
▁Like	-5544
▁letâ	-5545
edding	-5546
▁claps	-5547
▁click	-5548
▁crowd	-5549
▁slimy	-5550
▁entire	-5551
▁Tuesday	-5552
▁camping	-5553
▁peaches	-5554
▁planets	-5555
▁seagull	-5556
▁stirring	-5557
▁screaming	-5558
▁wondering	-5559
▁discovering	-5560
Happy	-5561
œDonâ	-5562
▁guys	-5563
▁pies	-5564
▁situ	-5565
▁tour	-5566
▁west	-5567
▁Hanna	-5568
▁snugg	-5569
▁seesaw	-5570
▁sneaked	-5571
▁staring	-5572
▁increase	-5573
▁applauded	-5574
▁stretching	-5575
Joh	-5576
▁Fu	-5577
Spot	-5578
Somet	-5579
▁Pipp	-5580
▁unex	-5581
▁acted	-5582
▁siren	-5583
▁however	-5584
▁homework	-5585
▁spraying	-5586
▁balancing	-5587
▁unexpected	-5588
▁countryside	-5589
die	-5590
lee	-5591
zie	-5592
▁da	-5593
▁Kay	-5594
▁boo	-5595
Daddy	-5596
itely	-5597
▁Matt	-5598
▁fart	-5599
Goodbye	-5600
▁Always	-5601
▁highest	-5602
▁worries	-5603
▁cautious	-5604
▁giggling	-5605
▁outdoors	-5606
▁suitcase	-5607
▁touching	-5608
▁confident	-5609
▁goodnight	-5610
▁trembling	-5611
Mia	-5612
ern	-5613
jam	-5614
bric	-5615
ults	-5616
jamas	-5617
▁Both	-5618
▁heel	-5619
▁scru	-5620
▁allow	-5621
▁broom	-5622
▁sighs	-5623
▁fabric	-5624
▁leader	-5625
▁ladybug	-5626
▁mittens	-5627
▁passing	-5628
▁teasing	-5629
▁demanded	-5630
▁marriage	-5631
▁ourselves	-5632
hell	-5633
▁cape	-5634
▁scra	-5635
▁nails	-5636
▁luxury	-5637
▁plenty	-5638
▁Jessica	-5639
▁entrance	-5640
▁matching	-5641
▁rainbows	-5642
▁supplies	-5643
▁direction	-5644
▁shivering	-5645
ulu	-5646
inda	-5647
vers	-5648
Mummy	-5649
▁Mick	-5650
▁Mira	-5651
▁flat	-5652
▁ripe	-5653
▁vict	-5654
▁Linda	-5655
▁Rover	-5656
▁baked	-5657
▁grant	-5658
▁stare	-5659
▁sweets	-5660
▁winner	-5661
▁release	-5662
▁reaching	-5663
▁solution	-5664
▁satisfied	-5665
▁completely	-5666
...	-5667
aky	-5668
dies	-5669
ateri	-5670
▁Luke	-5671
▁cuts	-5672
▁Larry	-5673
▁greet	-5674
▁Hannah	-5675
▁materi	-5676
▁texture	-5677
▁restored	-5678
▁twinkling	-5679
Ah	-5680
nes	-5681
▁ti	-5682
aced	-5683
ason	-5684
cuse	-5685
▁heav	-5686
▁curly	-5687
▁Rabbit	-5688
▁poking	-5689
▁result	-5690
▁season	-5691
▁project	-5692
▁surface	-5693
▁wedding	-5694
▁balanced	-5695
▁curtains	-5696
▁sweeties	-5697
ody	-5698
ses	-5699
vin	-5700
▁ge	-5701
▁Bird	-5702
▁Carl	-5703
▁Lulu	-5704
▁comm	-5705
▁east	-5706
▁fara	-5707
lowers	-5708
œHello	-5709
▁Happy	-5710
▁Pinky	-5711
▁bunch	-5712
▁rolls	-5713
▁loaded	-5714
▁singer	-5715
▁snakes	-5716
▁faraway	-5717
▁pajamas	-5718
▁quacked	-5719
▁rescued	-5720
▁written	-5721
▁pastries	-5722
uly	-5723
Mama	-5724
acob	-5725
etty	-5726
▁Wed	-5727
nesday	-5728
▁horns	-5729
▁tasks	-5730
▁wound	-5731
▁burrow	-5732
▁marker	-5733
▁paddle	-5734
▁prayer	-5735
▁united	-5736
▁include	-5737
▁kneeled	-5738
▁melting	-5739
▁disagree	-5740
▁forehead	-5741
▁recorded	-5742
▁studying	-5743
▁Wednesday	-5744
▁polishing	-5745
▁Ke	-5746
▁Mon	-5747
œThis	-5748
▁Tess	-5749
▁boom	-5750
Excuse	-5751
▁Jacky	-5752
▁crabs	-5753
▁deser	-5754
▁trips	-5755
▁flames	-5756
▁magnets	-5757
▁matched	-5758
▁shelves	-5759
▁strings	-5760
▁creating	-5761
▁Mil	-5762
▁Pam	-5763
icorn	-5764
▁Amel	-5765
▁slap	-5766
▁Abbie	-5767
▁Jacob	-5768
▁dusty	-5769
▁stair	-5770
▁photos	-5771
▁towels	-5772
▁vanish	-5773
▁bravery	-5774
▁catches	-5775
▁kicking	-5776
▁unicorn	-5777
▁cheering	-5778
▁̃	-5779
ena	-5780
igi	-5781
une	-5782
When	-5783
ledge	-5784
▁chat	-5785
▁dent	-5786
▁wink	-5787
▁Suzie	-5788
▁blink	-5789
▁bumps	-5790
▁gazed	-5791
▁itchy	-5792
▁Sophia	-5793
▁motion	-5794
▁single	-5795
▁stamps	-5796
▁bedtime	-5797
▁dragons	-5798
▁pebbles	-5799
▁pencils	-5800
▁weeping	-5801
▁replaced	-5802
▁startled	-5803
▁ventured	-5804
▁ornaments	-5805
go	-5806
hee	-5807
irm	-5808
▁Bye	-5809
▁Gigi	-5810
▁sway	-5811
▁Betty	-5812
▁fetch	-5813
▁truly	-5814
▁buying	-5815
▁healed	-5816
▁misses	-5817
▁worker	-5818
▁arguing	-5819
▁cracked	-5820
▁hugging	-5821
▁knowledge	-5822
▁regretted	-5823
John	-5824
aren	-5825
cers	-5826
coat	-5827
▁Che	-5828
▁Abby	-5829
angled	-5830
œMommy	-5831
▁foods	-5832
▁wasnâ	-5833
▁wrist	-5834
▁Christ	-5835
▁covers	-5836
▁drives	-5837
▁prints	-5838
▁relief	-5839
▁tickle	-5840
▁farther	-5841
▁removed	-5842
▁rockets	-5843
▁tractor	-5844
▁usually	-5845
Sometimes	-5846
▁patience	-5847
▁polished	-5848
▁raincoat	-5849
▁sticking	-5850
▁activities	-5851
▁sandcastles	-5852
boo	-5853
hog	-5854
▁cans	-5855
▁Kayla	-5856
▁flags	-5857
▁roots	-5858
▁stern	-5859
▁usual	-5860
▁Amelia	-5861
▁rumble	-5862
▁shined	-5863
▁stolen	-5864
▁strike	-5865
▁chewing	-5866
▁opening	-5867
▁peeking	-5868
▁growling	-5869
▁observed	-5870
▁explorers	-5871
Gra	-5872
you	-5873
œOh	-5874
▁Ex	-5875
▁Ma	-5876
Yeah	-5877
ords	-5878
lings	-5879
usted	-5880
▁Aunt	-5881
▁Many	-5882
▁cent	-5883
▁pout	-5884
▁uses	-5885
▁yells	-5886
▁partic	-5887
▁smiley	-5888
▁threat	-5889
▁glasses	-5890
▁coloured	-5891
▁traveled	-5892
abel	-5893
opes	-5894
▁Els	-5895
▁Jay	-5896
▁Jeff	-5897
▁risk	-5898
▁Flops	-5899
▁bumpy	-5900
▁chips	-5901
▁fault	-5902
▁growl	-5903
▁herbs	-5904
▁ruler	-5905
▁spike	-5906
▁youth	-5907
▁rocking	-5908
▁celebration	-5909
▁firefighters	-5910
asm	-5911
mas	-5912
oys	-5913
▁Pl	-5914
indr	-5915
œWhy	-5916
rious	-5917
▁Elly	-5918
▁rubs	-5919
▁snat	-5920
▁Karen	-5921
▁chuck	-5922
▁freed	-5923
▁seems	-5924
▁Friend	-5925
▁crumbs	-5926
▁desert	-5927
▁owners	-5928
▁raindr	-5929
▁silent	-5930
▁valued	-5931
▁squares	-5932
▁staying	-5933
▁teaches	-5934
▁tickled	-5935
▁victory	-5936
▁hedgehog	-5937
▁improved	-5938
▁seashell	-5939
▁squealed	-5940
Al	-5941
jo	-5942
▁Owl	-5943
▁Days	-5944
▁rule	-5945
▁fuzzy	-5946
▁creamy	-5947
▁dipped	-5948
▁patted	-5949
▁sobbed	-5950
▁temper	-5951
▁listens	-5952
▁yesterday	-5953
▁particular	-5954
bbly	-5955
▁Lou	-5956
▁den	-5957
▁lap	-5958
▁bead	-5959
▁exha	-5960
▁firm	-5961
▁todd	-5962
▁Green	-5963
▁Leave	-5964
▁Water	-5965
▁adding	-5966
▁caused	-5967
▁peppers	-5968
▁wiggled	-5969
▁coloring	-5970
▁families	-5971
▁Christmas	-5972
▁wandering	-5973
▁Ju	-5974
ences	-5975
hello	-5976
iding	-5977
▁cash	-5978
▁gaze	-5979
▁safer	-5980
▁Robbie	-5981
▁reveal	-5982
▁winked	-5983
▁opinion	-5984
▁twinkle	-5985
▁workers	-5986
▁raindrops	-5987
▁situation	-5988
ctar	-5989
pite	-5990
▁Two	-5991
▁ast	-5992
▁ech	-5993
esome	-5994
isies	-5995
▁canâ	-5996
▁choo	-5997
▁cous	-5998
itches	-5999
▁Spark	-6000
▁dared	-6001
▁faced	-6002
▁pause	-6003
▁agrees	-6004
▁arrive	-6005
▁nectar	-6006
▁actions	-6007
▁daisies	-6008
▁needles	-6009
▁packing	-6010
▁resting	-6011
▁unpacked	-6012
▁exhausted	-6013
Uh	-6014
fl	-6015
eke	-6016
ley	-6017
Fine	-6018
Then	-6019
band	-6020
urry	-6021
▁Cra	-6022
▁Mel	-6023
▁aff	-6024
▁tim	-6025
oline	-6026
▁Lena	-6027
▁deli	-6028
▁mane	-6029
▁youâ	-6030
▁bowls	-6031
▁cough	-6032
▁goals	-6033
▁lined	-6034
▁Follow	-6035
▁wasted	-6036
▁awesome	-6037
▁jackets	-6038
▁network	-6039
▁swooped	-6040
▁inviting	-6041
▁pleasure	-6042
▁scrubbed	-6043
▁delivered	-6044
▁temperature	-6045
oni	-6046
▁Cu	-6047
njoy	-6048
ongo	-6049
quid	-6050
arter	-6051
immer	-6052
▁Jazz	-6053
▁June	-6054
▁Zoom	-6055
▁copy	-6056
▁robb	-6057
▁cause	-6058
▁reads	-6059
▁warri	-6060
▁behavi	-6061
▁liquid	-6062
▁marked	-6063
▁fairies	-6064
▁hallway	-6065
▁smarter	-6066
▁blooming	-6067
▁darkness	-6068
▁speaking	-6069
▁groceries	-6070
▁Y	-6071
eds	-6072
▁Ow	-6073
▁Po	-6074
▁hi	-6075
hile	-6076
reat	-6077
▁wow	-6078
uggles	-6079
▁Bongo	-6080
▁Robby	-6081
▁blows	-6082
▁fever	-6083
▁knees	-6084
▁piggy	-6085
▁reply	-6086
▁wears	-6087
▁wires	-6088
▁calmed	-6089
▁scales	-6090
▁soaked	-6091
▁drifted	-6092
▁Snuggles	-6093
▁achieved	-6094
▁cautiously	-6095
▁importance	-6096
▁princesses	-6097
▁ty	-6098
irts	-6099
▁Far	-6100
izzie	-6101
▁Momo	-6102
▁cowb	-6103
▁stem	-6104
▁Jones	-6105
▁Mikey	-6106
▁Susan	-6107
▁beads	-6108
▁seven	-6109
▁Flopsy	-6110
▁leading	-6111
▁ribbons	-6112
▁wouldnâ	-6113
▁chuckled	-6114
▁delivery	-6115
▁snatched	-6116
▁somebody	-6117
▁interested	-6118
▁yourselves	-6119
▁recommended	-6120
ans	-6121
boat	-6122
emma	-6123
▁bars	-6124
▁glee	-6125
▁pots	-6126
▁twin	-6127
œWhatâ	-6128
▁Olive	-6129
▁masks	-6130
▁sense	-6131
▁spong	-6132
▁swirl	-6133
▁Lizzie	-6134
▁Robert	-6135
▁bakery	-6136
▁dentist	-6137
▁fluttered	-6138
▁snowballs	-6139
▁impossible	-6140
Mum	-6141
mies	-6142
▁mes	-6143
▁Bess	-6144
▁naps	-6145
igning	-6146
▁Binky	-6147
▁Buzzy	-6148
▁Mabel	-6149
▁Zoomy	-6150
▁badge	-6151
▁kites	-6152
▁tempt	-6153
▁wipes	-6154
▁dreamt	-6155
▁losing	-6156
▁mesmer	-6157
▁remote	-6158
▁stroll	-6159
▁helmets	-6160
▁knights	-6161
▁napkins	-6162
▁paddled	-6163
▁stroked	-6164
▁forgiven	-6165
▁organizing	-6166
ik	-6167
Just	-6168
iles	-6169
▁rip	-6170
usband	-6171
▁Being	-6172
▁Doggy	-6173
▁annoy	-6174
▁awake	-6175
▁baker	-6176
▁froze	-6177
▁limes	-6178
▁Pippin	-6179
▁closes	-6180
▁joking	-6181
▁learns	-6182
▁pedals	-6183
▁pointy	-6184
▁secure	-6185
▁Johnson	-6186
▁Without	-6187
▁cashier	-6188
▁Although	-6189
▁Everybody	-6190
osy	-6191
weet	-6192
▁opp	-6193
arshm	-6194
arling	-6195
▁belly	-6196
▁burst	-6197
▁hider	-6198
▁passen	-6199
▁seeker	-6200
▁colored	-6201
▁filling	-6202
▁stomped	-6203
▁radishes	-6204
▁splashes	-6205
arshmallow	-6206
▁protecting	-6207
▁determination	-6208
Ro	-6209
ades	-6210
▁Get	-6211
▁Lau	-6212
▁Put	-6213
▁deal	-6214
▁tipt	-6215
▁Sorry	-6216
▁noses	-6217
▁tails	-6218
▁giraff	-6219
▁muscle	-6220
▁signed	-6221
▁sneaky	-6222
▁sponge	-6223
▁Nothing	-6224
▁candies	-6225
▁leaning	-6226
▁objects	-6227
▁scaring	-6228
▁scarves	-6229
▁tallest	-6230
▁warrior	-6231
▁accomplish	-6232
▁storekeeper	-6233
va	-6234
?",	-6235
alph	-6236
endy	-6237
iled	-6238
ishy	-6239
ouch	-6240
▁aud	-6241
▁sib	-6242
▁tig	-6243
▁unf	-6244
▁uns	-6245
brush	-6246
▁Gary	-6247
▁Hoot	-6248
▁leap	-6249
▁Maddy	-6250
▁Watch	-6251
▁meals	-6252
▁miles	-6253
▁arrows	-6254
▁artist	-6255
▁backed	-6256
▁cheeks	-6257
▁health	-6258
▁rising	-6259
▁tigers	-6260
▁husband	-6261
▁snuggle	-6262
▁giraffes	-6263
▁creations	-6264
▁everybody	-6265
▁recording	-6266
▁zookeeper	-6267
▁afterwards	-6268
ths	-6269
nect	-6270
tuce	-6271
vest	-6272
▁Spl	-6273
▁arr	-6274
ekend	-6275
itted	-6276
▁Jojo	-6277
▁Prin	-6278
▁aren	-6279
▁chip	-6280
▁Wendy	-6281
▁avoid	-6282
▁hides	-6283
▁marks	-6284
▁salty	-6285
▁steer	-6286
▁During	-6287
▁concer	-6288
▁diving	-6289
▁Goodbye	-6290
▁connect	-6291
▁dancers	-6292
▁lettuce	-6293
▁parties	-6294
▁weekend	-6295
▁flapping	-6296
▁hesitated	-6297
▁travelled	-6298
▁gracefully	-6299
▁mi	-6300
▁def	-6301
▁yum	-6302
ccoon	-6303
ition	-6304
ments	-6305
ustom	-6306
▁Zara	-6307
▁dots	-6308
▁feast	-6309
▁rusty	-6310
▁snuck	-6311
▁third	-6312
▁Granny	-6313
▁afford	-6314
▁custom	-6315
▁potion	-6316
▁slices	-6317
▁raccoon	-6318
▁toddler	-6319
▁tricked	-6320
▁handsome	-6321
▁hesitant	-6322
▁sailboat	-6323
▁talented	-6324
▁discussed	-6325
aa	-6326
pr	-6327
Rex	-6328
oke	-6329
▁Pu	-6330
Jack	-6331
ners	-6332
Tommy	-6333
icked	-6334
▁Milo	-6335
▁pans	-6336
▁slam	-6337
▁Along	-6338
▁drawn	-6339
▁lungs	-6340
▁sweat	-6341
▁direct	-6342
▁hissed	-6343
▁corners	-6344
▁tangled	-6345
▁siblings	-6346
▁spoonful	-6347
▁requested	-6348
ept	-6349
ids	-6350
zes	-6351
▁die	-6352
ivity	-6353
▁Tara	-6354
▁cott	-6355
▁logs	-6356
▁Bluey	-6357
▁Earth	-6358
▁Janey	-6359
▁Laura	-6360
▁Ralph	-6361
▁swept	-6362
▁wraps	-6363
▁darker	-6364
▁flight	-6365
▁folding	-6366
▁handful	-6367
▁mixture	-6368
▁neither	-6369
▁snowmen	-6370
▁tiptoed	-6371
▁pretends	-6372
▁printing	-6373
▁pumpkins	-6374
▁sausages	-6375
▁backwards	-6376
▁embarrass	-6377
▁fluttering	-6378
ded	-6379
▁El	-6380
Meow	-6381
ility	-6382
▁chop	-6383
▁gasp	-6384
▁Chris	-6385
▁Enjoy	-6386
▁adult	-6387
▁lower	-6388
▁cousin	-6389
▁grandp	-6390
▁drawers	-6391
▁insects	-6392
▁widened	-6393
▁audience	-6394
▁grabbing	-6395
▁superheroes	-6396
Boo	-6397
Bun	-6398
▁Li	-6399
▁Sc	-6400
aker	-6401
▁Exc	-6402
▁Fox	-6403
▁occ	-6404
Those	-6405
▁Gina	-6406
▁beam	-6407
▁cond	-6408
▁wins	-6409
▁worn	-6410
▁Holly	-6411
▁chefs	-6412
▁fears	-6413
▁refle	-6414
▁windy	-6415
umbling	-6416
▁Mickey	-6417
▁Thanks	-6418
▁clowns	-6419
▁flavor	-6420
▁grassy	-6421
▁rivers	-6422
▁willing	-6423
▁Princess	-6424
▁basement	-6425
▁experien	-6426
▁familiar	-6427
▁starfish	-6428
▁beginning	-6429
▁performan	-6430
Ew	-6431
no	-6432
Roar	-6433
abby	-6434
iece	-6435
sequ	-6436
▁Judy	-6437
▁dads	-6438
▁refu	-6439
▁Julia	-6440
▁bully	-6441
▁gross	-6442
▁knocks	-6443
▁paying	-6444
▁pouted	-6445
▁snowfl	-6446
▁Excited	-6447
▁consequ	-6448
▁heavier	-6449
▁wrapping	-6450
▁grandpare	-6451
▁sprinkled	-6452
▁complained	-6453
▁creativity	-6454
▁forgetting	-6455
▁celebrating	-6456
▁firefighter	-6457
Run	-6458
Shh	-6459
Whee	-6460
ados	-6461
▁Jax	-6462
Great	-6463
ddled	-6464
obody	-6465
retty	-6466
▁wept	-6467
▁Davey	-6468
▁forks	-6469
▁kicks	-6470
▁merry	-6471
▁reass	-6472
▁ropes	-6473
▁stays	-6474
▁Bessie	-6475
▁Farmer	-6476
▁bodies	-6477
▁indeed	-6478
▁recipe	-6479
▁source	-6480
▁puppies	-6481
▁avocados	-6482
▁provided	-6483
▁scratches	-6484
▁separated	-6485
▁shrinking	-6486
▁surroundings	-6487
tle	-6488
Next	-6489
aula	-6490
iley	-6491
▁Ash	-6492
▁Squ	-6493
▁Keep	-6494
▁Sque	-6495
▁Stay	-6496
▁crew	-6497
▁Paula	-6498
▁rings	-6499
▁Froggy	-6500
▁attack	-6501
▁humans	-6502
▁spikes	-6503
▁tricky	-6504
▁Friends	-6505
▁beloved	-6506
▁granted	-6507
▁presses	-6508
▁seconds	-6509
▁dollhouse	-6510
▁including	-6511
▁consequences	-6512
?'	-6513
wk	-6514
Bad	-6515
cake	-6516
fall	-6517
llen	-6518
▁Bee	-6519
athan	-6520
▁Frog	-6521
▁gems	-6522
▁hawk	-6523
▁hour	-6524
▁nine	-6525
▁edges	-6526
▁glued	-6527
▁horiz	-6528
▁plans	-6529
▁stool	-6530
▁talks	-6531
▁timer	-6532
▁Stitch	-6533
▁master	-6534
▁neatly	-6535
▁behaved	-6536
▁darling	-6537
▁deserve	-6538
▁dresser	-6539
▁gobbled	-6540
▁instrum	-6541
▁plucked	-6542
▁tunnels	-6543
▁wishing	-6544
▁magician	-6545
▁delivering	-6546
▁neighbours	-6547
eal	-6548
▁Bo	-6549
Lila	-6550
ably	-6551
▁cau	-6552
▁touc	-6553
▁among	-6554
▁buzzed	-6555
▁screws	-6556
▁teased	-6557
▁horizon	-6558
▁ruining	-6559
▁rushing	-6560
▁sailors	-6561
▁symbols	-6562
▁crossing	-6563
▁planning	-6564
▁swimsuit	-6565
▁warnings	-6566
▁lollipops	-6567
▁materials	-6568
▁performance	-6569
▁accomplishment	-6570
rig	-6571
œDo	-6572
choo	-6573
▁Our	-6574
▁Sim	-6575
▁age	-6576
▁fact	-6577
▁flas	-6578
▁pens	-6579
ronaut	-6580
▁Gemma	-6581
▁Mouse	-6582
▁drums	-6583
▁paths	-6584
▁Listen	-6585
▁Nobody	-6586
▁amount	-6587
▁echoed	-6588
▁onward	-6589
▁spices	-6590
▁cobwebs	-6591
▁designs	-6592
▁helpers	-6593
▁hitting	-6594
▁touches	-6595
▁Remember	-6596
▁blocking	-6597
▁astronaut	-6598
▁mushrooms	-6599
▁directions	-6600
▁marshmallow	-6601
▁remembering	-6602
nk	-6603
rie	-6604
▁Dr	-6605
atur	-6606
step	-6607
▁Abi	-6608
▁bru	-6609
▁mer	-6610
œYouâ	-6611
▁Todd	-6612
▁Quack	-6613
▁least	-6614
▁races	-6615
▁stung	-6616
▁teles	-6617
▁damage	-6618
▁onions	-6619
▁tested	-6620
▁wiggle	-6621
▁baskets	-6622
▁choices	-6623
▁forgets	-6624
▁matters	-6625
▁players	-6626
▁scraped	-6627
▁resisted	-6628
▁strongest	-6629
▁telescope	-6630
▁peacefully	-6631
▁marshmallows	-6632
Ch	-6633
▁Q	-6634
rip	-6635
œMy	-6636
fire	-6637
ntil	-6638
tier	-6639
œWow	-6640
▁cor	-6641
▁Well	-6642
▁sank	-6643
▁Under	-6644
▁Until	-6645
▁baths	-6646
▁genie	-6647
▁occas	-6648
▁poems	-6649
▁vines	-6650
▁Maddie	-6651
▁growls	-6652
▁honked	-6653
▁convers	-6654
▁greeted	-6655
▁younger	-6656
▁minerals	-6657
▁prettier	-6658
▁rustling	-6659
▁imagining	-6660
▁passengers	-6661
Fo	-6662
iel	-6663
▁Sk	-6664
dges	-6665
icky	-6666
artha	-6667
aying	-6668
manda	-6669
▁Boun	-6670
▁ache	-6671
▁mast	-6672
▁tuck	-6673
▁Fuzzy	-6674
▁munch	-6675
▁neare	-6676
ientist	-6677
▁Martha	-6678
▁Pretty	-6679
▁adults	-6680
▁commun	-6681
▁images	-6682
▁nearly	-6683
▁unsure	-6684
immering	-6685
▁Curious	-6686
▁feeding	-6687
▁praying	-6688
▁respond	-6689
▁vanilla	-6690
▁behaving	-6691
▁behavior	-6692
▁borrowed	-6693
▁cushions	-6694
▁stitches	-6695
▁curiously	-6696
▁increased	-6697
▁scientist	-6698
▁mesmerized	-6699
▁complaining	-6700
the	-6701
lves	-6702
ueen	-6703
Today	-6704
aired	-6705
▁Mart	-6706
▁sale	-6707
Little	-6708
rigued	-6709
▁coral	-6710
▁notes	-6711
▁swall	-6712
▁tramp	-6713
▁twice	-6714
▁Amanda	-6715
▁Splash	-6716
▁center	-6717
▁dances	-6718
▁joyful	-6719
▁stands	-6720
▁wobbly	-6721
▁drivers	-6722
▁enthusi	-6723
▁hopeful	-6724
▁zipping	-6725
▁playtime	-6726
▁repaired	-6727
▁rewarded	-6728
▁swallowed	-6729
▁sunflowers	-6730
▁trampoline	-6731
Our	-6732
œHi	-6733
▁oh	-6734
Have	-6735
Oops	-6736
ippy	-6737
▁Sun	-6738
▁coc	-6739
ouple	-6740
œWell	-6741
▁Elsa	-6742
▁Finn	-6743
▁Maya	-6744
▁Rain	-6745
▁Ravi	-6746
▁Stan	-6747
▁nibb	-6748
▁noon	-6749
▁scen	-6750
▁trot	-6751
▁Wally	-6752
▁flown	-6753
▁geese	-6754
▁pours	-6755
attered	-6756
▁action	-6757
▁braver	-6758
▁couple	-6759
▁poster	-6760
▁swords	-6761
▁wobble	-6762
▁healing	-6763
▁hearing	-6764
▁wobbled	-6765
▁Birthday	-6766
▁arranged	-6767
▁dropping	-6768
▁spreading	-6769
▁treehouse	-6770
▁enthusiasm	-6771
▁2	-6772
acy	-6773
yes	-6774
▁10	-6775
atul	-6776
idey	-6777
iona	-6778
weed	-6779
▁det	-6780
▁elf	-6781
itude	-6782
river	-6783
▁beeh	-6784
▁ease	-6785
▁hops	-6786
▁jugg	-6787
▁nood	-6788
anging	-6789
itched	-6790
▁Queen	-6791
▁blast	-6792
▁final	-6793
▁prove	-6794
▁slips	-6795
▁spins	-6796
initely	-6797
▁Spidey	-6798
▁guests	-6799
▁heroes	-6800
▁pecked	-6801
▁slower	-6802
▁warmer	-6803
▁wiping	-6804
▁Squeaky	-6805
▁lighter	-6806
▁sandpit	-6807
▁encourag	-6808
▁finishing	-6809
▁triangles	-6810
▁refreshing	-6811
▁travelling	-6812
--	-6813
sp	-6814
▁Im	-6815
bell	-6816
bird	-6817
œMom	-6818
œNow	-6819
▁Win	-6820
▁vid	-6821
cused	-6822
veral	-6823
œCome	-6824
▁Mean	-6825
▁Nora	-6826
▁Zero	-6827
▁defe	-6828
▁poss	-6829
▁sadd	-6830
ertain	-6831
▁Fiona	-6832
▁Sadie	-6833
▁Simon	-6834
▁Since	-6835
▁Those	-6836
▁aimed	-6837
▁antic	-6838
▁explo	-6839
▁flips	-6840
▁offic	-6841
▁plain	-6842
▁thorn	-6843
▁acting	-6844
▁reason	-6845
▁seller	-6846
▁shirts	-6847
▁steady	-6848
▁thrown	-6849
▁videos	-6850
▁firefly	-6851
▁focused	-6852
▁lifting	-6853
▁oysters	-6854
▁pennies	-6855
▁seaweed	-6856
▁several	-6857
▁yielded	-6858
▁breathed	-6859
▁campfire	-6860
▁examining	-6861
▁definitely	-6862
▁sy	-6863
Like	-6864
anes	-6865
ears	-6866
osen	-6867
yond	-6868
Yummy	-6869
stick	-6870
years	-6871
▁Muff	-6872
▁bows	-6873
▁peck	-6874
▁thud	-6875
illiam	-6876
▁Kelly	-6877
▁Tessa	-6878
▁faded	-6879
▁glitt	-6880
▁lifts	-6881
▁scamp	-6882
▁stain	-6883
▁Alison	-6884
▁Sparky	-6885
▁beyond	-6886
▁chosen	-6887
▁cuddly	-6888
▁proper	-6889
▁sports	-6890
▁beehive	-6891
▁causing	-6892
▁chopped	-6893
▁express	-6894
▁freedom	-6895
▁heading	-6896
▁noodles	-6897
▁squishy	-6898
▁visitor	-6899
▁Squirrel	-6900
▁cupcakes	-6901
▁politely	-6902
▁snowflakes	-6903
bro	-6904
Time	-6905
cher	-6906
ongr	-6907
ream	-6908
rian	-6909
▁Lia	-6910
▁ros	-6911
ently	-6912
inger	-6913
while	-6914
▁Fire	-6915
▁Hope	-6916
▁Katy	-6917
▁wonâ	-6918
Follow	-6919
unched	-6920
▁Roger	-6921
▁dived	-6922
▁roars	-6923
▁shown	-6924
▁towns	-6925
▁whose	-6926
Grandma	-6927
▁cowboy	-6928
▁daring	-6929
▁pupils	-6930
▁robber	-6931
▁sniffs	-6932
▁softer	-6933
▁twenty	-6934
▁warmly	-6935
ongratul	-6936
▁William	-6937
▁flavors	-6938
▁slammed	-6939
▁stacked	-6940
▁toaster	-6941
▁diamonds	-6942
▁sneezing	-6943
▁twisting	-6944
▁insisting	-6945
▁nervously	-6946
▁surfboard	-6947
▁throughout	-6948
cl	-6949
ky	-6950
ido	-6951
iki	-6952
str	-6953
uzz	-6954
▁Up	-6955
Woof	-6956
▁Zip	-6957
▁aim	-6958
▁inj	-6959
mered	-6960
onies	-6961
otten	-6962
ushed	-6963
utter	-6964
▁puff	-6965
▁Birdy	-6966
▁Quick	-6967
▁awoke	-6968
▁loops	-6969
▁sewed	-6970
▁wrink	-6971
▁Crabby	-6972
▁Daniel	-6973
▁Mother	-6974
▁charge	-6975
▁mailed	-6976
▁tables	-6977
▁twisty	-6978
▁lending	-6979
▁licking	-6980
▁statues	-6981
▁designed	-6982
▁driveway	-6983
▁explorer	-6984
▁grandson	-6985
▁ignoring	-6986
▁overcome	-6987
▁stopping	-6988
▁suffered	-6989
▁twinkled	-6990
▁whispers	-6991
▁intrigued	-6992
▁streamers	-6993
▁belongings	-6994
▁decorating	-6995
▁performing	-6996
▁whispering	-6997
▁grandparents	-6998
Fl	-6999
upt	-7000
yan	-7001
arac	-7002
aven	-7003
meal	-7004
▁Dog	-7005
▁dot	-7006
▁unw	-7007
asers	-7008
▁Fido	-7009
▁Love	-7010
▁Ryan	-7011
▁Tuna	-7012
▁cosy	-7013
▁fant	-7014
▁fits	-7015
▁insp	-7016
▁mate	-7017
▁prob	-7018
▁shoo	-7019
▁sled	-7020
▁Gabby	-7021
▁Momma	-7022
▁Riley	-7023
▁belts	-7024
▁coach	-7025
▁leads	-7026
▁roses	-7027
▁swans	-7028
▁wider	-7029
▁Muffin	-7030
▁calmly	-7031
▁novels	-7032
▁ponies	-7033
▁rotten	-7034
▁Outside	-7035
▁anticip	-7036
▁dollars	-7037
▁forests	-7038
▁goodies	-7039
▁joining	-7040
▁oatmeal	-7041
▁results	-7042
▁playroom	-7043
▁probably	-7044
▁trembled	-7045
▁fantastic	-7046
▁scampered	-7047
▁punishment	-7048
▁quarreling	-7049
▁reflection	-7050
▁beautifully	-7051
▁surrendered	-7052
▁understands	-7053
sm	-7054
ael	-7055
cus	-7056
whe	-7057
▁Sw	-7058
onse	-7059
rier	-7060
▁Any	-7061
▁gap	-7062
dding	-7063
iment	-7064
▁Back	-7065
▁Mich	-7066
▁Nana	-7067
▁fins	-7068
▁tiss	-7069
broken	-7070
ounced	-7071
▁Maisy	-7072
▁Pandy	-7073
▁Peggy	-7074
▁Start	-7075
▁confl	-7076
▁foxes	-7077
▁manag	-7078
▁merma	-7079
▁risks	-7080
▁shops	-7081
▁tying	-7082
aracter	-7083
▁colder	-7084
▁Frankie	-7085
▁Michael	-7086
▁napping	-7087
▁picnics	-7088
▁slither	-7089
▁response	-7090
▁Meanwhile	-7091
▁character	-7092
▁connected	-7093
▁performed	-7094
▁waterfall	-7095
▁appreciated	-7096
▁forgiveness	-7097
Jo	-7098
Wh	-7099
bra	-7100
cky	-7101
its	-7102
rup	-7103
▁Fe	-7104
crow	-7105
▁Meg	-7106
▁ais	-7107
child	-7108
ilted	-7109
mates	-7110
▁Joan	-7111
▁gest	-7112
Listen	-7113
driver	-7114
▁Becky	-7115
▁Still	-7116
▁aside	-7117
▁elbow	-7118
▁rainy	-7119
▁syrup	-7120
▁trans	-7121
▁tweet	-7122
▁Ginger	-7123
▁Joanna	-7124
▁Louise	-7125
▁cloudy	-7126
▁convin	-7127
▁scored	-7128
▁spills	-7129
▁annoyed	-7130
▁certain	-7131
▁handing	-7132
▁postman	-7133
▁waddled	-7134
▁gardener	-7135
▁sniffing	-7136
▁seashells	-7137
▁grandchild	-7138
▁encouraging	-7139
▁screwdriver	-7140
▁anticipation	-7141
▁appreciation	-7142
Le	-7143
▁X	-7144
Sue	-7145
but	-7146
fus	-7147
rrr	-7148
▁ni	-7149
Lucy	-7150
onna	-7151
▁Cle	-7152
▁Des	-7153
▁tar	-7154
▁wag	-7155
creen	-7156
found	-7157
▁Fuzz	-7158
▁Rock	-7159
▁jars	-7160
▁lent	-7161
▁pops	-7162
▁ramp	-7163
▁reun	-7164
ooking	-7165
▁bells	-7166
▁craft	-7167
▁kings	-7168
▁sails	-7169
▁shady	-7170
▁snort	-7171
▁weeds	-7172
ighting	-7173
▁cheers	-7174
▁except	-7175
▁laying	-7176
▁tipped	-7177
▁Despite	-7178
▁bravest	-7179
▁pedaled	-7180
▁changing	-7181
▁officers	-7182
▁reversed	-7183
▁smallest	-7184
▁students	-7185
▁sweetest	-7186
▁watering	-7187
▁worrying	-7188
▁Yesterday	-7189
▁believing	-7190
▁necklaces	-7191
▁preparing	-7192
▁responsib	-7193
▁suffering	-7194
▁increasing	-7195
▁suggestion	-7196
▁heartbroken	-7197
▁conversation	-7198
rey	-7199
œOf	-7200
▁Mo	-7201
Mine	-7202
munk	-7203
▁Ali	-7204
▁Sal	-7205
▁swo	-7206
storm	-7207
▁suns	-7208
▁ties	-7209
ambled	-7210
▁Nancy	-7211
▁Patty	-7212
▁conqu	-7213
▁gears	-7214
▁gonna	-7215
▁nests	-7216
▁reapp	-7217
▁Seeing	-7218
▁angels	-7219
▁biting	-7220
▁puppet	-7221
▁zebras	-7222
▁blocked	-7223
▁concert	-7224
▁meowing	-7225
▁stumble	-7226
▁swollen	-7227
▁trotted	-7228
▁tumbled	-7229
▁batteries	-7230
▁pepperoni	-7231
▁permitted	-7232
▁reassured	-7233
▁respected	-7234
Bob	-7235
cie	-7236
▁ev	-7237
athy	-7238
ooky	-7239
wise	-7240
▁Mam	-7241
▁hoo	-7242
▁und	-7243
amboo	-7244
eling	-7245
mbers	-7246
order	-7247
uctor	-7248
▁Snap	-7249
▁earn	-7250
▁pays	-7251
▁toss	-7252
▁vegg	-7253
Fluffy	-7254
▁anger	-7255
▁blond	-7256
▁drown	-7257
▁fires	-7258
▁quilt	-7259
▁skunk	-7260
▁soapy	-7261
▁stall	-7262
▁suits	-7263
▁thatâ	-7264
▁wrigg	-7265
▁Pepper	-7266
▁counts	-7267
▁firmly	-7268
▁height	-7269
▁rather	-7270
▁spooky	-7271
▁tapped	-7272
▁toward	-7273
▁wiggly	-7274
▁damaged	-7275
▁delayed	-7276
▁efforts	-7277
▁members	-7278
▁mermaid	-7279
▁smashed	-7280
▁streets	-7281
▁crashing	-7282
▁newfound	-7283
▁planting	-7284
▁promises	-7285
▁speeding	-7286
▁thoughts	-7287
▁uniforms	-7288
▁passports	-7289
▁scrambled	-7290
▁paintbrush	-7291
▁discoveries	-7292
ms	-7293
?!"	-7294
hew	-7295
oey	-7296
ugs	-7297
vas	-7298
ivia	-7299
usty	-7300
ading	-7301
ances	-7302
orter	-7303
steps	-7304
œOkay	-7305
▁Zoey	-7306
▁nuzz	-7307
▁soot	-7308
▁sped	-7309
▁woof	-7310
romise	-7311
▁Brian	-7312
▁Janie	-7313
▁Josie	-7314
▁fills	-7315
▁mints	-7316
▁oppos	-7317
▁pound	-7318
▁purrs	-7319
▁rains	-7320
▁Jennie	-7321
▁Olivia	-7322
▁fishes	-7323
▁judges	-7324
▁magnif	-7325
▁months	-7326
▁shaped	-7327
▁stroke	-7328
▁tablet	-7329
▁target	-7330
▁tidied	-7331
▁tissue	-7332
▁address	-7333
▁beating	-7334
▁cleaner	-7335
▁cleared	-7336
▁clearly	-7337
▁cuddles	-7338
▁dangers	-7339
▁million	-7340
▁surfing	-7341
▁veggies	-7342
▁bandages	-7343
▁brushing	-7344
▁covering	-7345
▁frowning	-7346
▁inspired	-7347
▁panicked	-7348
▁breathing	-7349
▁conductor	-7350
▁exercises	-7351
▁discussing	-7352
▁Sl	-7353
Some	-7354
Very	-7355
ails	-7356
asty	-7357
cent	-7358
œHey	-7359
▁Baa	-7360
▁dep	-7361
▁nur	-7362
ening	-7363
water	-7364
▁Doug	-7365
▁rout	-7366
▁Other	-7367
▁Thatâ	-7368
▁alien	-7369
▁globe	-7370
▁seals	-7371
▁untie	-7372
urprise	-7373
▁canvas	-7374
▁desper	-7375
▁nights	-7376
▁refuse	-7377
▁sparks	-7378
▁sprout	-7379
▁squeak	-7380
▁wisely	-7381
▁artwork	-7382
▁doorway	-7383
▁kittens	-7384
▁loading	-7385
▁pigeons	-7386
▁puzzled	-7387
▁soaking	-7388
▁tidying	-7389
▁toolbox	-7390
▁travels	-7391
▁treated	-7392
▁Fighting	-7393
▁material	-7394
▁occasion	-7395
▁packages	-7396
▁reunited	-7397
▁smelling	-7398
▁thanking	-7399
▁convinced	-7400
▁displayed	-7401
▁footsteps	-7402
▁magazines	-7403
▁prevented	-7404
▁reminding	-7405
▁squeezing	-7406
▁admiration	-7407
▁experienced	-7408
car	-7409
lph	-7410
now	-7411
pen	-7412
..."	-7413
aret	-7414
bage	-7415
byes	-7416
▁ank	-7417
▁ger	-7418
▁moo	-7419
▁sav	-7420
▁sou	-7421
▁spy	-7422
arrow	-7423
inkle	-7424
▁Ever	-7425
▁Izzy	-7426
▁Take	-7427
▁chin	-7428
▁coug	-7429
▁evil	-7430
▁fond	-7431
▁rays	-7432
ighing	-7433
œWhere	-7434
▁Mamma	-7435
▁Sleep	-7436
▁Super	-7437
▁camel	-7438
▁nasty	-7439
▁banged	-7440
▁chilly	-7441
▁crowns	-7442
▁heaven	-7443
▁sewing	-7444
▁shrunk	-7445
▁swayed	-7446
ordinary	-7447
▁Because	-7448
▁despite	-7449
▁garbage	-7450
▁honking	-7451
▁mommies	-7452
▁pleaded	-7453
▁rotting	-7454
▁sending	-7455
▁solving	-7456
▁sternly	-7457
▁swimmer	-7458
▁blinking	-7459
▁distract	-7460
▁dressing	-7461
▁duckling	-7462
▁goodbyes	-7463
▁guessing	-7464
▁munching	-7465
▁opposite	-7466
▁squeaked	-7467
▁trusting	-7468
▁vehicles	-7469
▁imaginary	-7470
▁chocolates	-7471
▁accomplished	-7472
▁extraordinary	-7473
TMd	-7474
ann	-7475
bec	-7476
fia	-7477
ori	-7478
▁''	-7479
Dear	-7480
Take	-7481
airy	-7482
gain	-7483
hind	-7484
ilda	-7485
uggy	-7486
vant	-7487
œBut	-7488
▁Bra	-7489
▁Smo	-7490
▁Zee	-7491
▁dod	-7492
▁loc	-7493
▁rin	-7494
ddles	-7495
vroom	-7496
▁Skip	-7497
▁disc	-7498
▁exch	-7499
▁lapt	-7500
▁spat	-7501
▁whoo	-7502
idence	-7503
isions	-7504
▁Bruce	-7505
▁Grand	-7506
▁Terry	-7507
▁cubes	-7508
▁doves	-7509
▁knots	-7510
▁scrub	-7511
▁Albert	-7512
▁Behind	-7513
▁Hallow	-7514
▁Stella	-7515
▁bamboo	-7516
▁cocoon	-7517
▁lasers	-7518
▁obeyed	-7519
▁wealth	-7520
▁within	-7521
ironment	-7522
▁emerged	-7523
▁flipped	-7524
▁gesture	-7525
▁manners	-7526
▁masterp	-7527
▁nibbled	-7528
▁prayers	-7529
▁chipmunk	-7530
▁Excitedly	-7531
▁Halloween	-7532
▁customers	-7533
▁responded	-7534
▁comforting	-7535
▁generosity	-7536
▁environment	-7537
lyn	-7538
eedy	-7539
rink	-7540
▁Ana	-7541
▁hen	-7542
Quick	-7543
Watch	-7544
acles	-7545
icate	-7546
itive	-7547
▁afar	-7548
▁decl	-7549
▁digs	-7550
▁mood	-7551
▁type	-7552
▁unlo	-7553
Always	-7554
▁Flora	-7555
▁Jason	-7556
▁Jonny	-7557
▁ankle	-7558
▁awful	-7559
▁bride	-7560
▁focus	-7561
▁grows	-7562
▁inter	-7563
▁maker	-7564
▁marve	-7565
▁natur	-7566
intment	-7567
oration	-7568
▁Speedy	-7569
▁Taking	-7570
▁brains	-7571
▁collap	-7572
▁donkey	-7573
▁laptop	-7574
▁peeled	-7575
▁sheets	-7576
▁storms	-7577
▁visits	-7578
▁Another	-7579
▁Feeling	-7580
▁Welcome	-7581
▁burying	-7582
▁changes	-7583
▁shovels	-7584
▁business	-7585
▁paddling	-7586
▁pinching	-7587
▁wrinkled	-7588
▁forgiving	-7589
▁movements	-7590
▁sunscreen	-7591
▁confidence	-7592
▁glittering	-7593
▁surprising	-7594
▁encouragement	-7595
So	-7596
ae	-7597
oc	-7598
ps	-7599
we	-7600
œA	-7601
elie	-7602
ipes	-7603
issa	-7604
rect	-7605
worm	-7606
▁caw	-7607
Every	-7608
anish	-7609
dress	-7610
ingle	-7611
rying	-7612
▁Dory	-7613
▁bits	-7614
▁flip	-7615
▁form	-7616
▁jobs	-7617
boards	-7618
▁Finny	-7619
▁Libby	-7620
▁Sofia	-7621
▁flick	-7622
▁germs	-7623
▁groom	-7624
▁leapt	-7625
▁prick	-7626
▁snaps	-7627
▁sweep	-7628
▁tires	-7629
▁wakes	-7630
dresser	-7631
immered	-7632
▁floors	-7633
▁pandas	-7634
▁sadder	-7635
▁spells	-7636
▁thorns	-7637
▁transf	-7638
▁waters	-7639
Surprise	-7640
▁Freddie	-7641
▁Looking	-7642
▁Snowman	-7643
▁bruises	-7644
▁correct	-7645
▁cupcake	-7646
▁lessons	-7647
▁natural	-7648
▁nearest	-7649
▁nodding	-7650
▁tighter	-7651
▁whoever	-7652
▁Startled	-7653
▁compared	-7654
▁conflict	-7655
▁forgives	-7656
▁lipstick	-7657
▁mattered	-7658
▁recorder	-7659
▁troubles	-7660
▁bothering	-7661
▁decisions	-7662
▁languages	-7663
▁presented	-7664
▁repeating	-7665
▁hairdresser	-7666
lt	-7667
mo	-7668
€,	-7669
ats	-7670
pes	-7671
Boys	-7672
acle	-7673
ider	-7674
lets	-7675
line	-7676
ouqu	-7677
what	-7678
œSee	-7679
▁Fort	-7680
▁Ruth	-7681
▁Star	-7682
▁adds	-7683
▁dump	-7684
▁pins	-7685
▁pose	-7686
▁purr	-7687
▁rely	-7688
▁sill	-7689
▁surv	-7690
father	-7691
ouched	-7692
œMaybe	-7693
▁Elsie	-7694
▁Vroom	-7695
▁bouqu	-7696
▁clues	-7697
▁girlâ	-7698
▁hooks	-7699
▁loses	-7700
▁scent	-7701
▁shall	-7702
▁snowy	-7703
▁spits	-7704
▁steth	-7705
▁taped	-7706
▁Auntie	-7707
▁Gracie	-7708
▁Summer	-7709
▁burger	-7710
▁combed	-7711
▁cracks	-7712
▁frowns	-7713
▁jogger	-7714
▁parted	-7715
▁scores	-7716
▁tossed	-7717
▁closing	-7718
▁cottage	-7719
▁hamster	-7720
▁leaking	-7721
▁luckily	-7722
▁outfits	-7723
▁signing	-7724
▁tearing	-7725
▁winding	-7726
▁Quackers	-7727
▁although	-7728
▁applause	-7729
▁dripping	-7730
▁explains	-7731
▁exploded	-7732
▁freezing	-7733
▁seagulls	-7734
▁textures	-7735
▁computers	-7736
▁designing	-7737
▁observing	-7738
▁unpacking	-7739
▁windowsill	-7740
▁exploration	-7741
▁instruments	-7742
Pl	-7743
Get	-7744
bee	-7745
ker	-7746
▁Ar	-7747
▁De	-7748
Bang	-7749
Letâ	-7750
anda	-7751
aste	-7752
baby	-7753
bank	-7754
belt	-7755
jack	-7756
œThe	-7757
œWho	-7758
▁Ang	-7759
▁Pen	-7760
▁yel	-7761
antha	-7762
▁Jasm	-7763
▁Youâ	-7764
▁gall	-7765
▁lies	-7766
▁prod	-7767
▁scri	-7768
bbling	-7769
inging	-7770
▁Buggy	-7771
▁Kevin	-7772
▁Lenny	-7773
▁Megan	-7774
▁aisle	-7775
▁cares	-7776
▁erase	-7777
▁films	-7778
▁rowed	-7779
▁tubes	-7780
▁wiser	-7781
▁Hootie	-7782
▁Prince	-7783
▁beeped	-7784
▁cotton	-7785
▁failed	-7786
▁member	-7787
▁robots	-7788
▁simply	-7789
▁sirens	-7790
▁sprays	-7791
▁sweaty	-7792
▁Jasmine	-7793
▁Patches	-7794
▁Twinkle	-7795
▁beetles	-7796
▁bouquet	-7797
▁carries	-7798
▁compete	-7799
▁giggles	-7800
▁repeats	-7801
▁shallow	-7802
▁shorter	-7803
▁stamped	-7804
▁Samantha	-7805
▁bothered	-7806
▁declared	-7807
▁scooters	-7808
▁snapping	-7809
▁congratul	-7810
▁scarecrow	-7811
▁stretches	-7812
▁traveling	-7813
▁apologised	-7814
▁astronauts	-7815
▁classmates	-7816
▁lumberjack	-7817
▁Fortunately	-7818
▁masterpiece	-7819
An	-7820
Mr	-7821
€¦	-7822
For	-7823
Jim	-7824
emy	-7825
erk	-7826
rew	-7827
val	-7828
eens	-7829
rick	-7830
well	-7831
▁Paw	-7832
▁Ray	-7833
▁Say	-7834
▁Try	-7835
▁dip	-7836
anted	-7837
ibbit	-7838
ortun	-7839
ument	-7840
œGood	-7841
▁Duck	-7842
▁Gold	-7843
▁Peep	-7844
▁Time	-7845
▁Turt	-7846
▁cafe	-7847
▁papa	-7848
▁shin	-7849
barrow	-7850
ection	-7851
▁Again	-7852
▁Honey	-7853
▁actor	-7854
▁aware	-7855
▁bound	-7856
▁buses	-7857
▁enemy	-7858
▁forts	-7859
▁hoops	-7860
▁joins	-7861
▁joked	-7862
▁squir	-7863
▁unwra	-7864
ilities	-7865
▁Birdie	-7866
▁Bobbie	-7867
▁Martin	-7868
▁compan	-7869
▁grandd	-7870
▁pizzas	-7871
▁queens	-7872
▁sipped	-7873
▁stored	-7874
▁yelped	-7875
▁Playing	-7876
▁bounces	-7877
▁croaked	-7878
▁drowned	-7879
▁hunting	-7880
▁nuzzled	-7881
▁purpose	-7882
▁tasting	-7883
▁activity	-7884
▁crouched	-7885
▁customer	-7886
▁flashing	-7887
▁opportun	-7888
▁relaxing	-7889
▁seatbelt	-7890
▁squished	-7891
▁steering	-7892
▁whistles	-7893
▁bracelets	-7894
▁brightest	-7895
▁expecting	-7896
▁	-7897
e	-7898
a	-7899
t	-7900
o	-7901
h	-7902
n	-7903
i	-7904
d	-7905
s	-7906
r	-7907
l	-7908
y	-7909
m	-7910
w	-7911
.	-7912
u	-7913
g	-7914
c	-7915
p	-7916
f	-7917
b	-7918
k	-7919
,	-7920
T	-7921
v	-7922
"	-7923
S	-7924
H	-7925
L	-7926
'	-7927
I	-7928
O	-7929
!	-7930
B	-7931
M	-7932
x	-7933
<	-7934
>	-7935
A	-7936
W	-7937
j	-7938
J	-7939
Y	-7940
?	-7941
z	-7942
D	-7943
â	-7944
€	-7945
E	-7946
F	-7947
q	-7948
C	-7949
N	-7950
G	-7951
P	-7952
-	-7953
œ	-7954
R	-7955
K	-7956
:	-7957
3	-7958
V	-7959
Z	-7960
U	-7961
;	-7962
“	-7963
Q	-7964
1	-7965
0	-7966
”	-7967
̃	-7968
2	-7969
5	-7970
X	-7971
¦	-7972
4	-7973
Ã	-7974
©	-7975
8	-7976
9	-7977
7	-7978
Â	-7979
/	-7980
6	-7981
$	-7982
*	-7983
«	-7984
±	-7985
»	-7986
(	-7987
)	-7988
&	-7989
¡	-7990
Š	-7991
+	-7992
_	-7993
`	-7994
́	-7995
